31
02
36
30
5E
6B
29
F9
6C
73
26
E6
A9
E3
F2
9A
EB
C3
F0
1D
5B
CE
B9
43
4C
6C
BB
77
57
50
FD
29
AE
C7
27
23
A4
F0
41
2E
79
30
E8
DF
E2
CF
25
4A
01
14
26
E8
DA
DF
58
9D
CC
09
3C
A2
DC
9D
1D
EF
FD
22
39
63
5D
0C
DF
DE
47
11
4E
F7
AA
FF
41
5C
2A
EC
35
2C
26
F2
E6
BE
BA
38
A8
FB
12
28
4A
BD
F7
34
39
01
F8
E1
56
02
E4
EC
5E
38
76
45
F1
59
DA
1A
BE
DC
D8
0C
F4
AC
47
BD
26
5A
11
94
D0
17
EE
EE
FC
68
B9
FC
F8
D0
6C
ED
47
DB
06
F4
52
DF
78
95
A0
63
D4
B4
5B
4D
63
AC
DC
60
E5
0D
C4
4C
EA
ED
0D
FB
3C
12
96
F0
3D
42
3F
ED
19
1A
28
FB
54
DB
E0
63
16
56
A9
22
BE
0E
54
9F
8F
F7
60
4D
15
A9
E4
F5
BA
37
D7
50
69
FA
54
6F
29
26
4B
1B
0B
70
4A
0E
0D
1E
0B
B0
05
D5
0B
DE
2E
F6
3E
E9
57
56
03
CD
05
3B
E4
34
AD
EA
2A
D1
F7
09
D8
DC
EF
39
B6
56
A3
53
16
A3
46
E2
67
2D
F1
2C
02
5E
6B
E0
5C
C6
6A
69
EA
F1
6B
99
AB
E8
A7
1D
F5
B3
AB
26
FC
4B
2C
41
44
21
29
C5
B1
4C
3C
46
51
D1
6A
3D
A0
23
BE
99
97
2E
11
EE
9C
F7
65
30
5D
ED
0B
C8
02
CA
16
B3
AC
FE
C1
02
20
F2
30
FC
EE
A9
CD
F2
0A
BA
FD
62
44
2D
E6
1C
02
22
2B
E3
C5
01
46
1A
AF
B9
EF
54
A7
9E
57
D8
0F
F4
EF
A1
C4
1F
5E
AF
17
27
C7
35
DD
4F
00
1D
07
3B
E3
F6
61
E7
31
BE
BC
3B
CC
E2
49
E5
B9
07
D5
13
C6
F6
D9
E4
08
03
3F
29
48
4A
68
A9
C7
2F
DC
4B
CF
62
F0
F3
15
DE
DB
FD
5B
DD
26
07
1F
DE
5F
08
F1
F9
5F
07
63
FC
E3
16
21
6E
E0
34
36
03
85
CA
46
A8
C3
36
C1
C1
07
53
56
0F
08
31
CF
57
CC
01
34
37
E8
0B
5B
33
E3
01
42
4E
3B
6A
76
E4
C8
66
72
F2
53
ED
C6
CD
CF
C8
D0
FB
AD
CE
45
BA
97
C4
37
5F
1C
5C
AA
0A
A6
63
04
36
27
45
F3
C5
43
B8
C6
FE
C7
AB
E3
EA
47
D7
78
54
CA
5F
C5
4D
46
AD
98
BF
B8
C1
AC
C6
DD
A8
C1
2F
48
43
5E
18
07
30
EE
19
B9
65
60
7F
1E
E1
FE
B7
02
CB
D3
CA
A8
EF
43
F4
E8
DD
0C
1D
0B
37
DC
EE
AE
C5
BF
41
0E
96
64
32
BF
1A
2F
EC
F9
22
F7
53
FF
D0
AF
FE
C4
5B
E6
70
3D
67
6D
D5
FC
75
2C
FB
5D
3D
F1
05
CE
FC
E4
AE
57
63
C2
F2
FD
B3
4E
CA
58
B1
3A
BF
CD
C6
50
4D
5B
70
13
53
08
11
1D
57
EB
43
B3
DC
00
2A
EC
3C
9B
15
CF
06
02
E2
14
57
29
0C
06
1B
AC
05
46
11
9C
AF
