D7
D2
F1
E9
C8
14
13
F5
DE
06
D7
EE
F2
F3
2B
1A
F0
E0
F5
F1
EC
F1
0C
CE
DF
0E
F5
16
D8
E6
2A
39
DA
D9
EC
08
E5
F9
F5
C8
E0
0C
CA
E9
CF
C6
36
30
3F
3C
01
0E
19
10
07
42
26
E8
29
EB
27
35
94
B1
12
21
02
0E
29
FB
11
27
0A
E6
10
FF
23
1A
B6
AC
F2
E1
EA
F6
CE
0B
F0
CA
E6
08
EC
0A
CB
E5
32
32
11
10
0A
EE
0F
EF
13
14
10
0B
0F
12
39
2D
9E
A7
10
07
0A
09
F9
EF
F5
25
F7
F1
0B
04
11
05
F6
DE
0D
04
ED
FD
FE
E8
FD
0B
F2
F8
09
FC
0E
01
99
DD
D5
E5
EB
E7
D5
FF
01
DD
EA
01
EC
EF
EC
CC
3C
16
3F
23
F4
F0
38
00
0A
2F
16
E8
2D
F5
3C
2B
B6
93
1B
1C
09
02
20
F9
07
23
0C
EC
12
F5
0D
0A
9C
AE
60
4A
15
09
4C
14
F6
5A
55
FA
5E
F0
5D
6B
A4
B0
D3
D1
F0
FE
F2
EE
1B
D9
C6
FE
C8
0D
E4
D0
24
17
1C
1A
F2
E8
24
F7
12
24
12
FF
0B
05
20
2C
9C
A4
D5
E1
FA
0D
E0
0A
0A
EC
F0
0F
E8
FB
CE
DA
2F
32
D4
DB
05
E8
E0
FF
FE
D2
CB
12
F0
ED
CB
F4
26
2B
F2
E5
0E
EE
EF
F5
1A
DF
DB
05
D1
16
CB
EA
2D
38
E8
EE
14
00
D8
EB
0D
F5
E1
E6
D0
16
E1
E1
0D
32
39
37
06
F3
2D
FF
0D
33
2E
FC
1D
F4
41
2B
AA
8F
06
14
09
0F
FE
F1
F7
06
07
E9
0A
FE
2C
28
A7
A5
D1
E5
01
FA
D2
10
12
F5
F7
F5
D1
EE
D1
E3
21
27
20
2E
15
00
0F
EE
F1
11
15
0F
2E
13
20
2B
B3
A3
15
2D
FE
FF
0A
ED
0D
09
24
FE
04
F7
08
29
E4
F1
F2
16
EF
E8
1C
ED
F2
F7
00
FA
F4
F8
F3
05
AE
D8
E0
E2
06
FF
D1
09
FE
DF
DC
FA
E2
EB
E3
EE
26
36
36
1E
F3
03
3B
E7
FB
12
15
08
31
12
43
21
94
92
06
23
F9
F2
26
0B
EE
2B
10
FF
0D
02
2F
22
BD
A8
53
50
F8
00
4E
06
FA
50
70
EF
60
EA
6B
70
BD
B7
C8
E3
02
FB
CC
09
13
F4
DB
FF
F5
03
EE
E3
35
10
2A
25
F1
F6
11
E9
0B
02
14
F9
14
10
15
28
A0
B5
E3
D7
F0
E8
DD
0E
0F
EF
ED
F7
D5
FE
EF
CD
1F
35
E7
E1
FD
FF
D4
09
F6
F0
F7
13
D7
09
CF
E9
24
23
DA
D5
07
FB
E8
F6
F4
F7
F2
0F
ED
12
EA
F6
35
20
DF
F8
FB
FF
CD
F9
16
F6
D8
FA
E1
00
CB
D6
0D
23
33
1F
03
FB
2E
07
ED
38
35
EA
25
0A
20
36
AD
A2
13
14
F5
0A
06
0F
F4
11
00
FB
17
10
1D
07
C5
A3
DC
E3
14
F8
D1
00
16
D7
E5
0F
D7
F0
EC
F3
17
3A
35
2A
F3
0C
05
08
F1
17
1A
FA
17
E8
0C
24
AD
91
32
1E
EB
0F
12
0B
1E
22
0F
05
0E
05
12
10
EC
F3
17
0F
02
08
FB
14
F8
05
12
0D
F1
EE
09
12
A6
C3
E5
D9
F5
F5
E0
F6
03
D9
E8
12
D0
FC
CD
CC
21
17
25
1F
F1
FC
3A
02
02
3A
24
F7
3F
EC
35
1B
BC
94
28
05
FF
01
1A
FA
13
12
1B
06
26
F7
0D
0F
A2
95
46
52
0B
12
54
FE
FD
4C
4D
EF
4F
16
5E
42
D2
DE
C9
F8
F5
16
D3
F8
FA
DB
D0
02
E7
F6
EF
DB
24
19
16
04
02
04
0A
05
F8
03
04
ED
0C
10
0B
0A
8F
96
D1
FD
F0
FC
F1
07
12
D9
F5
EB
D8
0E
EA
FB
18
36
E3
DA
E9
E9
DF
FB
02
EF
F4
F5
EB
EE
F8
F2
1C
20
F1
CF
FB
F9
D9
F8
14
DF
D6
F9
D9
0D
D7
ED
3A
19
EA
F8
08
10
E3
EF
0E
F1
DA
E7
E1
FE
F7
F7
1A
3B
1D
12
17
FB
13
14
F9
3B
3B
F3
10
0C
44
45
95
B5
19
09
FE
E7
1B
09
F7
21
14
F8
22
06
0A
02
B9
C8
EE
D6
0E
02
E9
EA
0A
D9
E7
10
F6
EB
FE
F1
13
09
27
08
14
0A
1B
0B
ED
1B
25
FF
07
12
20
25
BF
99
15
0F
F3
F8
37
EA
FC
13
35
FC
27
0B
19
30
DE
D5
12
07
F7
0D
F3
15
FC
03
1B
0F
F6
F3
F4
18
8C
CC
D7
D4
05
0E
E1
FE
FD
E2
D5
02
EF
15
CE
EA
23
25
31
1B
FB
F1
26
FD
0B
10
1D
0A
20
01
38
41
B3
A8
1F
0D
F0
FB
13
F1
EF
2A
24
03
28
F7
07
1E
C6
A6
23
FD
F9
FF
28
13
F3
27
09
F8
0A
FD
13
FC
F1
DB
D0
EB
11
0B
E9
0C
FB
CF
E7
03
EB
F8
E5
FA
2A
0C
2D
26
F7
EE
12
00
FA
26
21
EF
FF
F6
03
1D
B4
CF
04
E3
F9
07
FF
ED
FA
06
02
04
06
11
E6
02
1D
1F
F0
D6
04
F8
F3
F2
0E
F7
EB
F0
EF
07
00
F7
1C
20
F6
DC
FE
F6
E4
F6
F6
F3
E2
0A
D5
0E
E8
ED
33
13
E2
02
06
11
EA
07
0A
F6
E6
E8
E6
F8
E5
F3
0F
2A
35
19
EF
01
2B
0B
12
34
28
08
0C
FA
16
20
AB
C3
14
FE
0A
EB
0A
FC
F9
04
FC
EF
17
ED
F9
0B
FF
00
D6
EA
04
0D
E1
0B
0F
E9
EE
05
05
08
FB
E8
2A
24
33
03
10
0B
13
EF
14
0C
01
E5
0E
F9
12
0C
B5
C0
37
2F
F2
F8
39
09
17
1B
3A
0A
33
12
2A
1C
C1
C6
10
09
F0
FA
06
0A
EA
0D
16
12
03
EE
10
F6
98
D2
E7
FE
04
E8
F4
EF
F9
E6
F6
FE
FD
EB
D4
D5
12
2C
17
22
16
EE
20
EE
FE
24
30
FD
1D
E8
36
1E
D9
D4
1F
15
EB
00
1D
EB
09
22
1D
06
11
F4
0F
2B
CC
C5
F8
18
FA
F5
07
12
FE
FB
0B
F2
EF
09
02
05
05
09
E3
F6
03
F9
0A
FB
F8
06
EA
ED
F9
F3
E1
E9
05
22
FB
18
10
F9
08
0C
10
08
18
0B
21
EC
FA
15
E8
01
E7
E5
15
01
F9
13
FD
EC
E6
ED
03
06
E8
DC
2F
28
FE
F5
ED
EE
E6
03
F6
FC
EE
00
F8
F1
FF
DB
24
03
E7
D9
05
0E
FD
F9
02
D8
EF
03
D7
F7
D9
DE
29
1A
EA
E4
F8
13
F8
FA
03
02
E9
05
D9
F2
F7
F2
23
03
1A
08
07
ED
23
FF
08
25
FE
0C
29
FC
03
12
E8
E3
01
EE
14
11
FD
01
10
15
0A
01
14
01
0C
09
FF
F3
F8
04
09
F1
FD
FA
F5
FF
02
F1
FE
F8
F6
DE
28
00
05
FB
F4
08
21
06
EF
FF
1A
EF
13
0A
02
01
D3
F4
1D
23
06
EB
36
F8
F8
37
2F
EC
18
FB
3C
22
BE
C0
FD
F7
04
02
14
15
09
10
FF
F4
19
0E
10
F4
91
C0
D6
E6
FC
F0
E0
03
18
E7
E1
EF
DF
01
EB
02
2C
0F
20
29
ED
FA
22
EF
F4
0B
1C
07
2C
F8
22
1B
D0
EC
04
1A
0F
10
02
F3
E9
19
19
F8
00
F1
FB
21
EE
F0
09
F8
07
F4
FE
F0
10
DF
F0
F6
E6
F0
E9
F8
03
EF
ED
07
FF
15
FF
FD
1F
F8
E5
E9
DD
0F
06
F0
1F
23
16
1A
F2
F0
03
E7
EA
14
07
04
1F
03
00
16
F4
F1
FD
F6
F4
F9
0A
12
17
EE
E2
F7
0B
E9
ED
FB
FF
10
03
E2
F4
FC
E5
04
F9
FD
FF
F3
02
F6
F4
04
1D
11
E5
E6
08
ED
E2
F3
18
F4
FD
06
DE
10
F1
ED
27
27
F9
06
FE
E7
01
F8
F9
E3
F3
01
FA
00
F6
E6
10
FB
0C
1B
FB
EE
12
F0
FF
17
15
FB
0F
FB
01
09
DC
0A
0D
11
F2
EE
F6
F7
0E
11
E9
01
FE
12
0F
EE
1E
F5
E1
F8
F8
07
FC
EB
FC
F5
F8
05
FB
F6
01
E7
02
1A
08
02
F1
FF
1C
11
0C
07
00
FC
16
12
1E
0A
EB
05
44
18
F4
FB
31
E9
12
44
20
EE
3C
F2
23
44
DA
B3
00
FB
16
04
F1
0C
EC
12
FB
F7
06
F3
F9
16
A6
EA
E4
F8
15
11
F6
12
F4
E7
FE
EE
FA
14
E5
DB
11
08
0B
19
0D
0C
0E
E8
0A
00
0E
06
F8
EF
1D
FA
F0
F5
FB
1C
F7
0C
F5
FD
08
06
0C
0A
0D
F9
06
FA
FD
F0
FF
03
EE
FC
F2
F1
FD
FC
F6
13
04
10
F7
04
0A
0A
FA
F8
04
F3
F8
15
04
02
F6
EE
FD
EB
0A
EE
21
0E
0F
F1
03
F3
FF
06
01
FB
16
F5
06
EC
01
FB
00
1D
F1
10
12
ED
09
10
FF
FA
0A
F7
07
0B
F9
09
FE
0E
FB
F6
F2
E7
0C
EB
09
06
FB
0D
EA
05
FB
FD
22
F4
F3
F9
F5
E9
E2
EE
06
08
E5
0D
05
16
E1
F6
21
18
08
0D
08
EE
08
01
15
EA
F1
F8
10
06
E2
E7
1E
0A
01
0C
F5
EA
F6
F7
FA
F6
F0
F7
12
15
FF
E9
02
1D
FA
04
09
E9
FA
00
09
0A
0A
FB
FD
EB
E5
09
09
28
FF
0C
EE
F2
FF
08
01
13
F7
00
F5
03
04
FC
15
F4
F7
EF
03
EC
02
F1
FF
00
06
FD
E4
0D
E3
F1
F9
0E
35
23
F2
F4
37
F1
01
25
46
10
1D
F4
4E
41
B6
C2
16
12
F7
FC
F2
F4
12
F4
1B
07
09
FE
0E
F3
CF
E9
04
E4
F5
FF
F6
05
15
04
E1
FD
0C
04
FE
F6
FF
01
03
F9
EB
0B
EC
EC
04
F5
0B
F9
E5
F4
02
08
FF
0A
EF
EE
13
E8
F9
02
EF
EB
F4
FB
11
F7
FA
ED
06
FC
03
00
F7
01
05
FB
F6
E5
03
04
05
FF
E6
F3
1B
FE
22
18
FF
06
26
F5
04
F9
19
05
15
04
FD
18
E8
07
02
FD
0E
0C
04
0E
08
FC
ED
07
0B
15
05
02
29
27
F3
02
06
F2
0A
F9
FB
0E
0A
0E
EA
15
F9
0A
FF
EC
EE
FE
FE
F2
EC
EF
FB
0F
F4
FB
0F
15
F4
14
1E
FC
09
01
F2
FA
F1
00
F0
F9
E3
FE
EC
F3
F1
E8
24
20
EA
08
F6
E6
01
09
02
0F
10
0A
14
0B
F1
FD
07
03
F4
EE
04
FE
FF
E7
0C
F8
E4
EA
FF
00
ED
F1
0D
FC
EC
09
F3
09
F1
FF
14
01
F4
0D
DE
F3
F6
F0
05
2B
04
18
EB
06
F9
0D
14
00
FE
FA
F0
F2
0E
F1
FA
F9
E9
01
E9
03
EE
15
05
ED
03
0C
E3
11
EF
06
22
2A
47
45
06
FE
1A
0A
1A
3E
2B
08
24
F4
32
34
C1
BF
07
10
08
E6
13
0C
ED
13
18
FE
05
F8
0C
F9
E9
E0
F0
F4
0B
F6
ED
09
17
FD
F1
FD
0F
F6
F0
0C
F9
01
DE
F6
F8
10
EB
E8
FD
DD
FE
E6
F6
FD
E3
01
16
05
DE
0A
09
F1
0C
FD
EA
00
07
0A
F2
0D
EA
E5
0F
1D
02
E6
F3
EB
F4
00
15
F4
E0
10
E1
0B
DC
05
11
10
FE
11
F5
09
14
F5
14
0E
18
F2
24
14
25
FF
FF
F1
F3
F2
EA
F8
E6
EB
10
E7
01
E7
03
16
DE
F2
1E
26
14
02
05
04
17
EA
12
1B
13
06
16
0D
06
07
E3
09
F2
19
F3
E9
0D
06
F8
F5
FB
0E
EB
04
FD
08
F3
F1
F7
FD
EA
10
FF
FD
F3
0B
E9
0C
03
F3
02
F6
1F
0A
19
10
0D
F2
0E
FD
1A
FD
09
04
07
EC
F0
0F
F4
F1
F2
E4
03
0E
EA
13
E9
DC
E4
0C
EF
EE
EB
03
10
2A
ED
04
10
FB
E0
EF
F5
F9
E7
F6
E5
F9
E5
DE
2F
2E
12
0B
EC
F9
0B
10
11
01
02
F3
13
11
10
FD
01
E1
DE
E4
EA
E9
F9
EF
10
D6
E5
F6
EA
EE
EE
F4
2A
06
43
46
02
EC
3A
F9
0F
42
3A
FC
2A
EE
32
28
C4
B8
08
0C
02
03
F9
0C
0D
F4
FB
00
02
09
1D
18
BC
F2
F4
07
16
FB
15
06
0E
0E
F8
F2
F1
FE
00
10
09
0A
F3
E6
12
EF
DB
F3
F5
EF
ED
F7
E9
FD
E4
DB
25
25
EA
05
EA
02
DF
FB
E8
ED
F2
FA
E6
F7
FD
F4
1D
23
F3
E1
F7
EB
05
F1
02
E8
F6
05
F9
FE
04
E1
0A
07
2A
0C
ED
E9
0C
F5
FF
29
01
01
27
EC
21
03
F4
FC
DE
D9
F5
06
03
E7
15
D7
E4
00
F4
F1
F4
D6
1C
09
05
1F
F3
00
0C
03
F2
06
F3
E5
07
FE
16
F4
FF
FA
F3
0D
13
E8
03
12
0A
12
08
05
1C
FC
FE
0D
E8
F2
FB
07
F9
13
0D
0A
0D
EE
FB
07
12
0A
0D
F2
FC
F3
1F
F9
0D
0C
F7
EB
12
FD
06
0B
FA
04
1B
19
F5
FD
DC
F9
03
11
EE
02
E9
D5
00
F3
00
01
F5
D5
2B
26
F3
F4
0A
EC
01
07
09
DB
D7
E7
FC
03
E0
DD
0F
0A
16
00
FD
12
02
E9
0D
13
1D
06
10
11
18
07
01
E2
DE
D1
ED
E5
E5
07
14
F6
EF
E6
F0
FC
F3
E6
34
28
36
3B
F3
E8
52
02
07
3A
32
ED
37
F4
45
3C
B0
DA
07
17
F2
FB
F0
01
12
08
F5
0B
0E
EC
00
15
0F
12
15
0F
F7
EB
F3
F0
12
0B
F9
06
0F
EF
01
07
ED
03
DC
FE
F7
EB
E9
F5
03
D6
E6
05
D4
00
E6
DB
17
0A
FB
FE
13
04
D7
ED
EF
E6
DE
07
F6
E9
E7
EA
20
0A
FA
E0
EF
04
FD
FE
F2
E5
EC
F2
EF
12
09
06
15
EF
37
34
15
03
41
F9
F7
2E
33
F8
31
05
29
1C
F9
DA
D8
F1
FF
FE
D2
04
0E
E0
DD
07
EA
F0
EC
DC
1A
22
F5
FB
08
0D
1A
F5
1D
FC
06
10
19
02
1E
0B
D9
F7
F9
FE
FD
05
09
F0
FA
F5
03
06
18
08
0B
08
E6
03
14
0D
F1
E8
FF
0E
FD
F3
18
EE
0A
15
08
1B
EE
00
0A
0A
F0
F1
1F
E8
FB
06
08
E9
FF
F5
FE
13
E5
EC
E2
E5
FB
EE
D2
12
FF
E7
EC
F7
D3
F8
E8
DC
1A
2E
F7
DB
F8
F7
E2
F2
12
FB
EF
0B
DA
14
FF
DF
0D
13
0A
17
02
00
24
FA
06
1E
1B
FC
13
03
20
FD
CC
F5
DA
F8
00
0C
E5
F6
EE
EB
D9
F7
CC
13
D5
E4
0E
2F
45
39
17
EB
44
EB
03
2D
34
E9
54
08
3C
46
BD
B1
1B
01
F2
FC
F0
FF
F5
03
EF
E6
16
EA
0D
F8
F9
05
FE
1A
EB
FF
1B
F6
0F
17
00
FF
0B
FF
19
F6
E6
0A
DD
D9
FF
F7
D3
01
F7
F5
D8
E4
CF
03
DE
CE
0B
2D
F5
F7
06
FA
DA
E7
EB
F6
D9
F0
F8
10
EA
F4
2D
2C
09
F8
12
0C
F2
15
F7
0A
DF
07
E5
0F
EE
F8
0B
FC
53
37
0C
08
3E
12
04
38
3B
EF
56
FC
4F
52
D3
FB
D7
E1
F8
EB
D2
14
EE
DA
EC
0E
EE
F7
DF
E6
25
0E
1B
0B
04
F1
F7
05
05
FB
06
F3
14
F7
FD
15
E8
FC
1F
FA
08
12
1D
ED
12
0E
18
07
FA
13
FF
19
F1
DD
18
19
16
EB
F6
E8
13
EF
FC
04
03
F8
12
15
E8
F8
25
FC
14
F7
08
0D
0A
0A
FA
06
12
15
01
FB
DC
EE
C9
F5
F7
FD
F6
07
F4
F2
EE
03
D3
F1
DB
D0
2B
19
FC
DF
F6
F3
E3
EC
EB
EE
EE
E5
D9
EB
F0
E3
0B
24
0E
21
F8
E9
05
08
16
FD
09
04
29
F3
21
1C
B3
D4
CD
D2
EE
F6
CB
EB
ED
E2
CF
11
CF
0D
E7
D1
2B
12
37
54
16
EF
3D
F9
1F
28
46
0B
3A
07
4E
50
CC
CC
FA
F3
FA
F4
F7
FA
FB
0A
EC
10
EB
FA
FA
F6
FB
FD
1F
01
13
07
22
F7
F0
13
22
0A
0C
14
1E
FB
DC
0B
F2
DD
F6
12
D5
EF
FE
E9
DF
06
C9
15
D5
E1
32
08
E5
CF
F2
0E
EA
F5
FE
D7
F7
06
D1
0D
F8
D4
0F
10
1D
1B
FF
01
27
E9
F3
11
0E
FF
1E
16
FC
15
F0
0D
5A
2F
FE
F3
4B
F4
0B
3B
4D
FD
4C
EF
3A
4E
C6
D6
D6
F5
04
FD
EC
05
F1
F0
D5
06
D2
F2
E2
E5
35
2E
1C
16
0D
F0
0C
08
08
17
25
E7
1A
EC
FC
04
B0
E7
13
24
03
05
18
13
0A
01
06
10
FD
01
14
06
D4
E4
12
15
EC
09
04
E7
F9
10
F7
EA
13
EB
FB
0D
0B
FC
08
22
F2
F0
17
15
18
23
26
0A
2B
F6
09
20
D6
EC
CF
EB
EC
F8
D7
F5
F7
F4
E7
09
ED
0C
E1
DD
34
11
DE
DD
0B
EB
E0
FE
0C
EC
E6
F2
EF
00
E0
FA
36
32
19
12
F8
0E
14
06
00
22
12
03
10
15
08
13
A2
E1
CF
D3
FB
FF
EB
01
FC
D8
DB
F2
D3
11
DA
C9
1F
1D
48
3F
05
11
38
FF
1F
24
4D
01
35
12
33
4B
D1
E1
EC
0B
F7
FB
EF
FD
14
16
0A
0F
F0
00
0C
F7
17
0A
0C
13
E9
EF
12
F3
09
28
17
FD
00
02
26
05
B7
DE
F2
E4
11
EC
EA
11
02
EC
DC
03
F5
0E
CE
D7
1C
33
CE
E5
EF
EA
F5
F5
09
EA
EC
E5
E1
13
CC
F6
38
2A
E7
ED
F1
01
0F
ED
0C
0D
F4
0B
0B
FF
EA
EC
00
21
64
65
EE
10
60
02
FC
61
3E
E9
46
0A
4A
63
A7
D6
E1
EC
E9
EF
EF
01
F1
EB
C8
11
E8
00
E7
E9
3E
25
1A
0A
EA
E7
00
10
F6
0B
28
0A
FD
F8
02
20
A9
A8
14
19
12
09
0B
11
19
1C
0F
EE
1E
FE
1F
24
B2
E2
1F
0A
00
F2
FD
F2
18
F7
1D
FB
F2
11
FA
04
D0
DB
33
2D
FE
F2
26
F2
F4
15
27
10
06
F7
30
22
C1
A5
C9
E8
EC
0A
EF
EF
10
C8
D9
F7
EA
F1
C6
D8
38
19
E9
E8
15
F0
F5
08
EC
ED
FD
08
EC
ED
DF
E0
11
36
25
22
03
ED
05
03
0C
14
08
EA
0F
F0
2E
14
A2
AC
DC
DA
EB
01
E3
F4
F9
D2
EA
02
E3
E8
DA
DF
30
34
13
20
F1
F2
19
EA
00
1F
2D
FE
32
F0
34
21
E8
EF
06
EB
00
FC
10
F8
FC
02
EF
09
FB
ED
F1
0A
FC
16
2F
09
03
F9
1C
F0
02
29
18
F3
1B
FC
14
2F
AE
B8
E8
EF
F2
E6
E2
0C
06
D8
D7
FE
E5
06
E3
D5
20
2A
EA
CD
F4
13
D4
03
EB
E3
F2
0A
E4
F5
E6
E5
33
34
13
0C
FE
08
09
0F
0F
02
17
04
1A
06
1D
1E
EE
17
74
7F
09
EF
7E
EA
03
71
5C
E7
7F
04
64
7E
A3
BF
CB
EF
09
04
EE
07
F5
DA
D2
FE
F1
F4
DE
D6
29
1E
29
09
FB
FD
04
FB
0F
02
19
07
16
00
28
08
C8
A9
03
13
FC
E9
26
06
0B
17
04
06
1A
13
0C
01
DA
AD
06
03
16
FE
1E
0E
06
FF
01
FC
06
F0
01
09
C7
B9
14
20
12
EB
2D
F0
01
02
03
FA
0C
0A
26
27
BE
D4
CC
D0
0B
04
D3
08
13
C7
CF
07
C1
0F
C8
DA
1A
27
EC
F8
FA
FF
00
FF
15
DD
0A
FE
FA
09
E4
EA
07
1F
0A
2A
ED
F1
1A
FA
06
17
06
12
29
10
1C
29
DD
CE
E4
D0
12
ED
D2
EA
12
EC
C9
0C
CD
0E
D0
EA
32
0D
05
F8
EA
EB
01
01
F7
09
F3
03
12
ED
0A
F2
09
0E
F1
0F
FB
E9
17
EA
09
01
03
00
03
E9
15
06
F6
F1
21
2B
F8
00
1D
ED
04
19
1A
EA
27
F4
07
16
B5
C2
C3
E2
08
E7
E2
E9
FE
C2
EB
0A
EA
FA
C1
DC
33
11
E7
E4
F7
FD
FA
EB
FC
F1
EB
FF
F2
13
F5
E1
18
26
52
48
06
02
3D
E7
09
4D
49
F4
4A
0F
3D
38
D9
F0
75
69
E9
0E
5E
ED
20
5B
72
00
5E
16
7C
72
B3
B1
DA
F8
0E
13
FB
FC
08
D7
FE
FC
FF
F9
D6
DE
32
1D
FB
1B
09
0B
FF
FE
FA
06
FC
06
F8
08
04
0E
E5
D7
0D
10
16
04
02
14
0C
11
18
F3
14
09
05
1A
DE
D5
06
12
0A
EF
20
0D
F8
13
F9
F7
1B
F6
14
06
ED
BE
1F
FE
FD
0E
0F
FC
F2
0B
19
FB
16
ED
21
0B
08
FE
DE
D8
16
03
E0
0B
FF
D3
F0
F4
D3
F9
DD
D2
29
13
FF
0F
FC
01
10
08
FD
02
E4
04
E8
0D
0E
FB
0B
14
2D
26
EA
F8
07
F5
FC
23
1C
E4
06
08
0D
2C
D6
DA
E0
F9
01
E9
FB
EC
01
D2
EF
0E
EE
EB
E7
D5
25
03
FE
F6
04
F3
06
F1
08
EB
F6
10
F3
F3
FD
E9
FC
0E
10
05
06
01
13
FF
06
13
FB
E8
01
F5
07
0B
FB
0D
07
10
13
F7
FF
F6
FB
FB
14
FB
20
09
FE
F9
E1
E3
EF
E0
EB
EC
F2
FE
01
D7
D0
EB
E2
02
EF
EE
29
0A
F4
FC
EF
FD
EB
FA
F8
FB
00
F8
E4
13
F7
DF
16
06
2E
28
FA
FB
27
F3
05
3A
46
FB
39
EF
42
21
D1
07
4A
40
EA
EE
47
FA
1D
48
5B
FC
60
04
55
3C
CE
D5
F1
EE
EE
E8
0A
FC
15
E9
F6
F8
DF
09
F9
F1
13
2C
EF
06
FD
FE
01
04
F7
FD
00
00
F3
08
0C
13
0A
18
0E
0A
F5
F1
0B
E7
11
10
09
F0
FB
0B
0B
0F
F8
05
03
14
01
F6
09
0A
FC
04
14
0E
0B
05
F4
17
EC
E2
10
0B
15
ED
F6
ED
11
0B
EA
02
EE
FC
10
F6
16
FF
FC
EC
15
04
E3
0A
09
02
F3
E5
F7
05
E7
DE
1D
11
0B
05
FA
FA
0C
FC
FE
15
F9
02
F6
FB
14
F0
0E
0F
11
12
05
ED
21
FC
04
19
0C
07
02
F8
17
0F
FE
FC
FC
F1
06
EB
EA
15
14
06
DC
01
EC
0A
DD
E1
09
27
0A
E5
08
FB
FC
06
F8
07
E2
18
EB
EB
EA
F6
F2
09
16
10
16
EE
F9
FF
F7
16
FD
0E
02
10
18
11
18
13
EC
F0
03
EA
12
FF
15
F3
FD
06
0A
EE
05
F3
12
0B
E9
D7
02
EF
F6
00
0B
DF
E7
F4
F8
10
F9
DE
15
26
08
0D
01
F9
ED
13
ED
F7
FB
F4
09
00
07
E5
0A
24
29
1B
F0
0B
39
00
14
24
1F
FE
30
FF
3F
30
DC
06
0A
16
12
14
0A
01
0D
0E
18
11
23
09
1C
FE
E2
EE
F3
E6
01
0D
E4
01
FD
FF
01
11
FE
05
01
EA
1D
0B
14
0D
08
F6
0E
F4
02
F9
15
0C
10
EC
11
F2
05
1F
18
0F
01
E8
FA
EE
1B
01
0D
F9
0A
13
F8
1E
F7
13
FB
F6
0D
FA
13
F4
14
04
F2
08
F5
0A
17
1B
09
F0
E7
04
EE
F4
04
08
11
E5
EA
11
0E
F0
FD
F0
0F
0C
02
EF
10
EF
F7
0C
F8
FB
FF
E8
FE
F3
ED
EB
08
25
F7
03
E9
03
17
E7
FA
04
16
FE
00
05
09
FC
02
0B
08
06
EE
F6
0D
F8
16
EC
FF
10
F2
FE
01
0C
F6
F8
E1
E6
EF
E6
07
F5
10
F0
0C
EA
ED
13
09
07
1B
01
FB
E7
FB
14
EC
FD
03
D7
F4
E9
E1
EC
DD
E2
04
18
F3
EE
F6
11
EE
E9
11
FF
0E
0F
EE
0C
FA
FC
26
12
F8
F1
16
F5
FE
0C
F2
E9
E5
02
09
FB
F6
0F
F9
F4
E5
DD
14
13
DE
EE
0B
04
04
07
F2
EC
EB
FF
1F
03
F4
EA
FB
02
15
12
07
F7
FC
03
FF
08
07
0A
1E
0B
3B
41
F0
0D
3A
EA
19
3B
29
05
28
FC
1E
29
E5
E1
F1
15
08
0D
EE
15
04
F3
12
13
FC
17
16
09
17
F3
F4
EA
F3
02
E7
F2
F6
F8
02
FA
FC
F1
0A
08
24
0A
0B
07
17
0C
FF
12
FD
04
ED
F5
0F
10
EF
0E
F8
10
12
0A
FE
FE
03
EC
0A
00
E7
01
02
FD
12
08
0B
FB
FF
0C
EC
0B
10
F2
0A
05
09
11
F1
02
F7
00
0D
1F
F4
E3
FA
00
FF
F2
FB
03
09
F4
FC
14
06
01
1C
03
13
F2
F5
0B
F0
0F
08
EA
F6
F3
12
02
E9
F0
08
FF
11
F1
11
03
09
13
F3
EB
15
F3
0E
FF
11
0B
07
01
05
F9
EA
FA
F7
05
F5
FD
F1
FF
02
EF
E7
E9
12
15
F2
08
02
EC
EA
14
01
EF
0D
E4
F5
13
0F
07
F8
FD
F8
F6
F9
F7
DB
01
FE
F3
F8
13
F2
EB
DD
D2
0D
29
05
FC
0D
0F
F0
0D
0E
F2
F7
FA
EA
EA
02
F1
12
18
E2
00
FD
E8
F2
FF
FE
07
0B
0E
F5
F3
02
E6
0C
FF
0C
0D
13
ED
F1
F8
08
EA
FD
F6
FD
EF
F5
02
14
04
14
06
01
13
F8
13
19
FC
FB
E9
0C
0A
F5
13
07
0E
18
F1
04
EF
11
FD
11
01
04
0D
17
06
11
FA
12
F9
FA
E2
03
E9
F2
04
22
EA
E5
05
04
0E
EB
E5
06
06
14
FC
F6
F2
F8
12
E7
12
F4
01
F0
F1
10
05
1B
FC
0F
0B
00
08
F0
05
FA
FD
F8
05
0E
14
15
0C
FF
13
E8
F7
0A
0B
E9
EF
10
FC
E7
EE
0B
13
00
F9
14
1F
F0
19
F6
01
09
F0
10
FD
05
FE
17
08
08
13
F9
1E
EE
E9
0D
0F
0B
0B
0B
E1
F4
04
E2
0E
F4
06
1A
1D
F3
15
FE
FC
0B
EA
EE
09
F8
E5
18
F6
0A
08
0B
0A
05
FA
F6
EA
11
13
FC
00
1A
EE
EE
FC
F4
08
0C
F5
0A
0E
FD
06
F4
F1
1A
09
0E
F0
11
EA
F9
F6
1E
18
F9
03
14
09
0E
05
0A
16
15
EC
03
EE
FB
ED
FE
14
DE
F2
FD
F6
E2
ED
0F
03
FD
EE
DF
F2
F2
FD
FD
EB
10
0C
00
04
10
FB
06
09
13
E9
F2
FD
07
F0
F7
08
EE
EB
F2
07
03
FB
0C
0B
F2
10
05
0F
0E
FC
0B
FF
08
01
14
F7
16
F3
E8
04
0F
E6
F7
13
F4
12
16
F9
FC
F6
12
ED
FB
F5
04
F2
EF
0F
03
FC
ED
10
19
1C
E9
E6
00
00
FB
0E
02
EB
EF
01
FD
F3
DB
E7
18
02
E8
E7
FE
F5
E4
11
FC
F9
FF
FF
FF
16
0E
00
FE
13
EB
0F
12
06
FC
02
F4
FF
10
11
FA
0E
EC
F9
02
05
13
10
EF
0F
08
E9
0C
F3
1A
06
F5
F7
19
08
EF
FF
01
14
11
F2
F8
02
09
ED
02
FA
0A
FE
08
F4
FE
11
0F
12
F3
F1
14
12
17
18
03
FB
F0
FA
10
F7
F6
F2
07
F3
11
13
E6
16
13
F2
EF
ED
02
F2
E6
0E
0C
11
FE
FA
14
F0
F3
13
EB
E1
06
03
05
04
FF
FE
13
05
F8
F0
F3
E7
1D
F6
01
02
09
F3
1C
FC
1D
0C
0C
00
E7
F1
E9
0A
07
FF
19
F1
03
EF
0D
03
10
08
FE
10
F8
0A
FE
F1
01
06
F8
F2
F4
11
18
10
0D
10
00
19
F8
DF
09
14
D2
F8
08
DF
F3
F6
F3
10
E0
E5
2D
1F
09
F9
06
F1
14
0F
12
03
0E
F0
FA
FF
13
1B
FE
E9
FE
FB
EA
00
FE
08
02
FB
0E
EE
F0
E9
0A
F7
F5
1C
16
0B
FA
01
EB
EC
11
0C
11
E6
14
03
0D
FF
21
F5
0D
FF
14
FC
0D
F9
01
0B
0A
03
18
FD
EF
01
12
1E
24
2B
0E
03
0C
FB
FE
1E
1D
F6
0C
06
14
14
E9
01
05
F1
F2
F0
E3
EA
FC
01
06
00
EB
01
E5
F5
0F
23
FA
EB
ED
02
F1
F2
E2
FF
0B
E9
00
0B
FF
09
F7
1D
F1
0E
10
FD
0A
F2
F7
FC
F9
F8
F8
F3
F7
0B
01
FC
0F
F6
F1
0A
18
FA
F8
19
16
03
18
0E
FD
0D
01
1C
F2
F7
15
EF
FF
03
0A
F7
08
E8
FB
FB
F0
FE
EA
09
E5
F5
05
F7
E1
EF
11
02
F0
03
04
07
00
08
15
05
F0
07
0B
FF
0B
0A
F9
0C
FC
09
E3
15
FE
EC
21
01
03
FB
F3
00
FC
07
04
13
F4
10
10
0C
F7
F3
F1
0F
F7
F5
EC
F8
0B
15
00
0C
FD
E7
05
FB
0D
04
15
F5
F9
FC
0A
02
F3
02
FB
14
00
F8
17
E9
F2
FA
F9
04
CC
DD
04
F9
DA
FA
1C
E5
E1
ED
BF
11
D0
BB
25
31
18
F1
FA
E6
16
12
FE
00
10
FD
10
01
F6
12
18
22
E4
EF
EE
F7
FF
02
0C
E8
FF
F8
0A
FF
F2
ED
03
20
09
F2
F2
03
FC
F2
ED
04
F0
02
F8
0A
14
09
1F
0B
F7
0D
FF
F5
0B
0C
FC
10
F5
11
1C
F9
16
0B
F0
01
1A
16
01
FF
19
08
04
1D
2E
07
2D
08
2B
28
DC
09
EF
F8
EF
15
EB
17
FA
E0
F4
03
F1
FC
F7
E2
0A
08
F6
0B
EB
F7
F4
0E
FF
08
EE
0E
12
FB
1B
02
10
EE
F5
F3
0E
00
FE
F8
1D
ED
0C
F9
FC
F8
06
04
05
27
09
ED
14
F3
EC
05
19
F3
15
12
F5
04
02
F7
F2
22
F2
12
FC
00
FF
13
F7
FD
F4
EF
11
11
F2
13
13
15
F3
F7
00
0E
E9
F2
03
ED
F3
F5
F7
F1
F0
FB
13
1C
FC
1A
16
EC
0F
F2
07
1D
13
E6
F7
15
11
00
E3
07
1B
0C
07
ED
17
F5
FB
F7
EF
06
09
FB
F0
00
07
0F
06
0D
F8
F2
F9
09
00
0B
08
EB
F5
0B
04
08
F3
0C
15
FC
09
0C
FF
0B
E2
0E
FD
03
F5
01
FF
08
F1
0F
F3
EC
FE
FD
01
EC
F2
E3
EB
EA
EC
0B
EE
04
07
19
03
08
0A
F5
02
04
EC
ED
09
FB
F9
FB
FB
FF
0B
15
E5
E9
0D
17
FA
0F
12
F6
E5
04
E1
F5
FF
E9
1B
1A
F8
FD
16
FF
01
F5
F0
02
1C
EF
F9
15
1C
F5
ED
0D
1A
F5
0C
06
1B
E8
01
00
08
0C
13
0C
FE
FE
EB
04
DB
E6
FD
0D
D0
F9
0A
D4
C4
14
E4
07
C6
D4
17
1A
D1
E8
F1
12
E0
15
16
CE
F4
FE
E0
0B
D6
DB
1B
11
17
1E
07
FD
1E
01
F9
F6
18
09
1A
07
13
08
FA
F6
FD
F9
12
EC
13
0E
F7
0E
08
0E
F9
F4
15
13
F2
F1
EE
14
FD
06
18
04
13
F1
FC
06
FE
07
FD
06
12
0E
01
FA
F8
0C
11
FD
01
F6
FA
EE
08
16
16
F2
0A
07
E7
FA
FA
0A
FA
0E
01
E1
E2
F3
EC
ED
FE
ED
1A
08
02
19
09
13
19
0D
F4
0E
05
FC
12
EA
02
FE
DE
04
FB
FD
F3
08
0A
F0
03
18
F7
0E
F5
14
F5
F7
F7
DE
F7
F7
ED
FC
02
14
18
18
17
F1
09
01
02
F6
FD
0C
04
07
FA
09
1A
00
F3
F8
1C
FF
F9
ED
10
20
F3
DE
14
1E
08
0E
01
13
1B
08
18
FF
17
15
F8
18
F0
F8
F6
02
F2
E7
F0
04
F4
FF
00
0E
F1
0D
F9
0F
E6
07
0E
07
17
09
04
EE
06
0E
00
12
F9
F0
15
0C
0B
FF
FD
FA
EF
FD
12
08
F9
1D
F8
EB
1E
F6
18
01
02
EA
0D
16
F4
F2
0A
F7
0B
05
17
FC
08
F4
F8
1B
04
0F
DF
F3
11
F1
DD
F5
20
F5
EE
F1
F6
14
E8
D5
2F
19
DA
F1
F9
12
DA
F1
23
DA
D4
00
D0
12
CD
E5
0A
07
FA
05
00
FC
19
F3
08
21
20
03
1B
ED
04
03
E1
E6
0A
F5
11
F5
0E
F7
11
03
F2
0C
16
09
16
00
FA
E7
12
02
01
F0
07
0B
13
01
13
03
FA
0F
F8
16
0E
08
F5
EF
FC
F4
16
F4
05
11
F5
03
02
0D
F7
EF
14
E9
F9
0F
0C
FF
FF
10
09
F3
E9
F3
EB
0D
0E
F5
22
0E
13
F7
FD
0B
F3
E8
ED
0E
0D
E7
0E
14
05
FA
F7
07
1B
04
ED
E8
0D
00
F5
14
1A
01
00
09
01
0C
E0
EE
03
FE
F0
07
FF
05
19
11
13
ED
F5
ED
1A
EF
F4
02
01
03
00
E8
22
01
FD
03
1E
FB
F9
03
01
FE
F9
EC
1A
FC
08
02
18
03
12
0E
F8
01
0B
F6
06
0F
05
15
16
01
04
E6
09
F3
F8
FA
11
FB
FA
EC
0C
0A
E0
C3
F0
F0
EA
0E
ED
F2
0F
0A
04
01
F5
EC
15
12
03
FF
0E
1C
FF
0E
1A
FF
FF
08
11
F0
09
08
F9
09
FF
F6
0B
19
05
FB
FF
F8
17
01
FD
FD
06
0F
14
0D
E7
E7
08
FA
EF
10
09
EA
07
FE
DF
0C
E4
FB
EF
02
FB
07
03
EA
EE
FC
04
F6
F7
DE
EF
F7
E1
0D
E2
09
FB
03
FA
21
F4
FC
05
0C
13
10
FB
0B
F6
FF
0D
1C
CE
E7
F3
F3
FB
F3
16
F4
F8
19
01
ED
00
EA
18
12
08
F0
EF
F8
0C
04
F2
FE
01
F6
12
F1
F0
02
17
05
00
F2
F3
0D
11
EE
F9
15
F6
17
10
12
08
F2
04
18
F2
F6
ED
ED
05
FD
FC
0D
05
EF
FF
FC
F2
12
FC
F1
21
04
0B
FC
05
E7
F4
F7
16
0A
0A
F6
F7
05
EB
0C
EA
FE
F8
0E
02
12
FE
02
EB
F7
14
F3
EF
F4
FF
13
ED
DA
FF
00
10
FC
EC
ED
07
08
0C
F1
16
FF
F4
FF
05
05
1F
0E
FA
FC
04
F1
EE
FC
17
E5
1F
08
22
1A
E8
0D
08
F9
16
E8
10
FB
02
03
FB
FD
14
F6
12
F9
06
0B
1D
0B
EF
11
09
0A
FF
1C
1A
0C
17
07
03
07
C5
F3
EE
02
EA
EA
0E
FB
14
0D
F9
F6
10
0F
F8
19
19
16
F5
0B
0C
07
F6
F6
13
01
EF
EC
F7
F1
1C
1C
E9
FB
FB
0E
07
06
03
08
1D
F3
10
E4
0D
0C
FF
FA
F8
F5
F7
23
FB
03
23
12
FF
03
1F
F1
FC
00
1D
11
FD
E6
08
05
0C
0E
11
FD
02
FA
0B
F7
13
FB
12
ED
03
EE
25
FF
06
FA
1D
13
0A
12
13
FE
01
EC
25
04
D3
03
0E
08
06
07
01
0F
16
FC
16
08
0F
0A
EF
06
21
14
F0
00
F0
01
03
F3
00
F0
11
0F
0E
04
02
02
16
F7
0C
08
FA
EB
F2
0E
07
FD
F5
04
F0
10
11
0A
FE
FA
09
0F
E9
01
05
F0
EF
0A
F7
E4
FB
07
13
F3
16
17
2F
17
0E
15
14
08
F4
21
30
F5
1A
17
1B
3B
D0
F5
26
1E
0C
12
17
06
0E
00
11
FB
16
F4
04
F9
E8
C8
F4
10
F3
E7
03
F4
12
F7
F3
EE
02
FF
11
0E
02
11
FD
14
00
FB
FD
FB
0C
13
0E
F9
0E
01
1B
FD
DA
F9
05
00
14
EA
14
02
12
0C
FC
11
19
05
18
F6
03
F7
00
FB
F9
E8
14
F3
F5
07
F0
FB
13
01
04
05
E0
E4
F0
0B
0A
11
10
01
09
F1
0B
E7
F8
EB
00
F3
0C
07
13
11
FD
12
FE
ED
1A
11
00
0D
0F
FF
1D
15
F2
E7
1B
F9
F6
EB
1B
FB
12
EF
F2
ED
0B
FC
FE
F2
FB
06
07
0D
06
FA
27
10
F5
2D
1B
07
2A
0F
23
20
EF
EF
04
11
FE
03
0C
04
F7
FA
06
05
FC
04
0D
EE
19
07
45
20
F5
03
3C
01
EF
21
2D
13
13
F3
42
27
C7
F2
FA
F5
F9
13
00
EB
15
F9
FD
F7
EF
00
F8
07
19
FB
F3
00
ED
E8
0E
FB
F9
EF
0A
EB
EE
E9
F9
14
12
F9
05
11
14
09
EB
EB
1A
09
0C
E9
14
01
0C
02
0B
F7
FC
01
F5
F0
02
11
EF
F4
0E
0F
02
FD
10
F0
F3
04
2B
1E
FB
01
28
14
09
FE
22
03
13
05
14
12
F8
E0
1A
0A
00
F8
0F
FA
16
09
1F
0B
06
14
05
1B
E1
E8
10
FC
13
F0
13
12
1D
0F
14
06
0D
0B
12
16
1A
08
18
40
02
FB
3F
F4
08
28
28
0C
1D
06
2C
39
E0
F3
19
15
0B
10
FF
FD
1F
FF
EA
F9
F8
12
09
07
16
0D
11
14
17
10
09
0B
07
12
03
FA
06
F3
12
11
09
F7
FA
05
10
F0
EF
02
0B
EF
19
FB
0F
ED
0A
0C
01
05
3B
26
EE
10
3A
05
06
27
37
06
2C
EA
3F
45
D5
CB
1B
09
FA
05
2F
FF
13
28
25
13
26
FD
2B
0F
DE
D9
E9
04
EA
0B
F3
FF
0F
F0
F0
EF
E5
05
00
FF
FC
FE
0B
FA
FB
FD
E9
EA
10
DF
07
ED
F3
FC
FD
DE
1A
09
19
2E
02
FC
32
0B
15
1D
1D
F2
26
15
1B
28
DC
E0
EF
16
08
05
FA
0D
1C
07
16
04
F4
F5
FE
F2
1E
F9
1A
F0
EA
F0
FA
EC
0C
06
08
E8
FC
FB
F8
10
0A
1F
FD
FA
EA
E7
EE
EB
F1
09
F7
E7
EF
16
1A
F9
02
01
F9
F1
05
FC
12
12
03
F9
02
E5
00
ED
F2
17
F9
0F
31
1F
0E
00
36
14
02
1C
0E
F3
1D
EA
27
28
D6
E7
EB
0D
EF
11
00
EC
04
03
0A
F9
FA
FD
0A
F3
0C
E1
F9
07
16
0F
F6
F6
11
06
EE
00
FF
03
ED
0C
0B
13
17
2F
07
FA
1D
14
F6
27
13
14
30
EF
10
10
EF
DF
07
1B
05
FD
FC
04
FE
EE
FF
F8
13
09
1A
0D
14
0D
11
FE
FF
EF
FF
01
05
F2
12
0A
04
03
01
FE
07
F7
02
F1
02
F7
06
03
F6
01
F8
FE
1A
0D
F1
08
0B
07
12
22
15
F8
21
F7
FD
0D
06
FE
0D
01
10
23
F9
05
14
18
15
04
2C
F7
FB
03
00
0A
2C
EB
09
2C
EF
EB
F1
F8
17
FF
FF
F5
10
FB
EC
EF
E1
08
09
0A
13
00
EB
FF
FC
11
0C
08
16
ED
FA
EE
E3
14
F6
E8
FD
FE
2D
11
11
0E
24
F2
03
0F
18
EE
24
0C
14
1C
D0
FF
06
1B
EE
E7
F1
0A
09
14
07
FF
EE
03
1A
FE
F1
1B
1D
16
FE
ED
18
EA
F8
1A
FC
E9
F3
08
FD
0B
00
06
04
F2
11
F5
F2
03
0D
17
0D
07
F6
EB
0A
18
1A
04
13
1A
F7
F9
F0
FC
10
12
1A
EA
09
EB
1C
07
FB
13
F9
14
EF
16
0F
F1
FB
F3
14
08
FE
03
08
01
F6
05
FA
12
11
0A
EF
F4
EE
FE
12
02
FD
F8
06
ED
FE
FA
03
10
F0
EA
F1
FD
09
08
F1
F8
FF
08
07
03
07
F9
1E
31
03
0B
2C
00
F9
20
0A
F8
06
FA
0C
15
D2
09
16
FB
08
04
0A
09
0C
F3
07
0E
0C
EF
09
08
F6
EF
01
0D
FC
F6
0A
EE
F3
EA
15
FC
10
F8
F5
12
FE
10
0B
17
02
05
FC
EC
F1
13
09
EA
16
09
F6
F6
F6
06
26
1E
F5
EA
0E
F6
12
19
21
07
30
EF
02
1D
E4
03
0A
F9
F7
FC
11
04
1D
1E
0B
F8
1A
05
15
15
02
CF
03
15
12
02
01
F8
01
02
F2
FA
EE
03
03
17
06
FB
0E
00
EF
16
EC
0B
F7
E2
07
EA
F1
11
FC
0C
07
F5
08
00
FE
10
15
EB
F2
02
1C
F7
0E
F6
02
09
FE
F1
01
05
13
10
01
F5
00
FE
11
03
F6
ED
F4
12
0F
03
F2
F4
EC
0E
0A
01
06
0A
1D
FD
05
04
16
FD
0B
05
07
F5
10
F7
F8
0E
F9
F0
10
E9
F6
F0
0A
F9
F9
06
14
FB
15
05
FF
FF
17
F7
0A
0F
04
E8
FC
02
0A
E4
F9
0A
12
0B
04
16
FF
FE
FB
FA
19
14
F3
07
E5
ED
F6
F4
0D
EF
EE
F9
FE
F9
F1
FE
06
F4
04
EA
0F
0A
F6
F1
F0
06
00
15
1E
19
F6
01
1C
0E
06
1E
14
09
26
27
0F
01
1E
FA
14
22
02
11
26
17
24
03
DB
01
FA
05
FE
FE
FF
EF
16
18
03
06
19
0B
05
0E
14
EA
14
02
F4
11
F0
EC
ED
0A
F7
17
07
EA
16
0F
F3
F3
13
0B
0B
09
FC
11
17
12
12
F3
1F
09
0F
03
F9
FC
08
FE
FC
F7
01
11
EF
F6
F8
F1
F5
0F
09
0E
05
F8
0F
FC
FA
EC
03
0D
E9
04
EA
0D
E9
F1
F0
FE
F0
06
F8
0E
0A
F2
F0
03
F9
FB
0B
ED
00
05
F7
E7
0B
F7
04
E5
0C
0F
ED
FC
FD
F9
02
F0
FE
0A
EB
E4
03
04
1F
09
EF
FA
05
F4
01
1C
FB
0A
F2
13
FD
1F
0E
EB
F9
F0
0D
FE
0F
01
EF
05
19
F9
F3
08
07
FD
0D
FA
00
0F
EC
EA
0D
F1
1B
0F
F1
F1
EF
0F
19
08
ED
E8
F8
17
01
EC
F8
02
00
1B
0E
0D
FC
E9
18
1B
F7
E4
F3
18
F7
0B
13
E8
FB
0F
14
EC
16
06
0C
16
E9
0A
13
0E
F6
08
F8
F8
0F
EA
01
F8
05
04
09
F1
FB
0A
0D
F3
EB
0E
0D
F5
FA
02
10
11
ED
12
10
F8
FC
F7
00
F6
14
E8
07
F5
F2
19
11
00
17
05
FF
11
14
06
FD
22
EA
01
0D
10
ED
02
FA
EC
FD
ED
FF
0A
F9
F5
F8
0F
16
0A
F2
E9
09
01
F3
FD
06
EC
E8
06
02
09
EE
11
FF
13
ED
01
0B
EB
F7
F3
01
FA
F5
F8
06
03
0B
10
FB
13
0C
F2
F5
19
F8
04
0A
10
19
17
02
E2
F7
1A
0E
12
F1
04
EB
08
EA
F7
08
14
F1
03
02
12
FA
DB
13
09
EA
F6
10
F3
E2
F0
DB
F4
F5
F0
14
07
E7
FA
F1
02
04
FB
F5
F9
E7
07
E6
FD
0A
06
0B
FC
FC
0B
05
FF
17
09
03
FD
F3
FE
F1
F0
F1
10
02
0D
04
F7
0B
06
04
F8
12
ED
05
F1
FA
14
0C
06
08
14
17
F5
0C
10
F0
FB
09
01
F2
E9
0E
F5
09
08
04
F7
06
15
08
FC
07
05
16
06
1B
F1
1B
F8
0D
F4
0D
F7
00
14
08
05
12
05
18
19
FE
F9
0B
F5
02
09
F2
F0
06
F6
FD
ED
11
E9
1D
04
F9
00
1B
03
F8
21
ED
F5
07
F3
F2
02
12
11
09
0C
13
0C
FD
0B
07
0C
FC
11
0C
0B
05
E8
FA
FD
07
04
10
F4
04
F0
F7
15
E8
04
13
15
FA
06
F0
F0
01
15
06
EF
13
FC
FB
FA
F3
F9
2D
15
0C
0C
1B
EF
EB
06
00
0F
15
F7
0A
39
E8
08
F7
F1
EC
02
F7
0A
14
F7
05
EF
0D
0C
0B
F8
FD
FB
0C
0D
0A
16
05
F2
00
0B
04
EB
EE
EE
09
F8
F2
F1
1A
08
0B
06
18
E8
0C
17
09
02
13
E9
FA
12
ED
ED
D3
F7
07
15
CC
05
0A
E3
DB
03
DD
16
E3
D4
1D
07
04
19
16
03
F2
0C
1A
02
13
04
12
FB
15
FC
07
18
0A
FC
10
E8
F7
FE
E9
FA
12
08
F1
00
EE
F9
F9
EB
EE
03
EA
FD
08
01
04
F1
16
03
FD
0C
10
FD
07
00
13
09
FB
01
F0
06
0A
FE
0B
EE
02
F6
EA
18
F5
F9
0B
02
09
F9
F1
02
F5
05
02
F6
12
E9
EE
FC
BF
F1
02
EE
08
00
19
E8
0B
10
0E
0B
14
03
13
19
11
FE
0B
08
E9
F9
1A
F5
0B
11
F1
0B
11
F6
15
00
FC
05
05
0F
EC
06
01
13
12
0A
09
FA
EF
F2
EA
0C
EE
F8
FF
25
FF
EF
23
EA
0A
02
14
03
12
09
24
2C
DA
FF
FA
19
EF
F4
12
04
EB
12
ED
03
F9
EB
0D
03
F3
10
0E
F4
07
ED
EA
FE
FE
02
EB
F9
F2
F0
12
10
FB
F9
02
0A
FD
12
0E
10
FE
F1
17
F2
1D
09
F3
13
13
04
08
00
17
F0
FD
0E
11
EC
FD
F9
06
F4
04
09
FD
EB
F2
FA
0F
FD
12
F1
00
FF
07
F8
15
E9
EC
14
13
ED
06
F4
0A
14
04
EC
16
ED
EE
04
01
F2
18
01
EF
F4
0C
18
ED
11
10
EE
FF
16
19
16
FF
EF
FB
05
E2
1A
08
F1
F8
EE
F3
F1
E3
14
09
12
0E
FA
F1
F4
FD
19
F8
00
0D
05
0E
07
EB
FB
0B
FD
F2
FD
08
F2
0A
FC
5F
35
0C
FA
2A
FF
22
4E
44
F5
0D
08
25
12
AE
E2
0C
F3
F8
10
16
05
F9
0F
FC
06
F2
09
F9
EE
1B
16
06
0C
F2
F8
FF
EE
14
0A
0F
FD
F9
F8
F1
E4
F4
14
F6
EF
03
FE
08
EC
FF
F5
F5
E9
F0
12
09
FF
06
02
10
00
EE
F4
EE
10
F3
F4
FC
10
0B
06
FF
11
07
05
F2
09
EB
EA
EA
F8
0D
16
EF
10
F0
01
F3
07
B4
13
11
F1
F5
03
02
EE
01
0B
F9
F0
1A
07
07
0D
15
0D
EF
0C
FD
0A
04
F8
F4
09
0E
01
F3
0C
FE
FC
F9
01
10
09
10
F0
10
0A
FF
F5
01
05
FB
04
ED
15
F8
00
15
0B
FA
F2
EE
F0
E7
13
FF
FC
10
F5
12
ED
1B
F3
E9
EF
F2
0E
0E
05
13
09
EB
0E
F7
14
E7
EE
0A
F2
FA
EC
FB
E9
01
12
16
0D
19
06
18
00
01
0B
F1
EE
F8
03
F4
FD
F4
06
0E
07
FA
EF
F4
0F
F7
08
FA
0F
EC
F4
11
13
11
FC
02
07
0B
0E
F7
F0
14
08
0E
09
19
0D
10
08
F1
14
F7
0F
12
F5
F5
FA
0A
F0
0A
0A
1D
24
09
EE
05
0A
F2
05
15
0F
23
0A
18
24
DF
C0
E0
FB
10
0E
E9
F4
14
05
E6
02
FC
EF
FC
F6
06
11
0D
0F
0D
F2
10
0F
E2
15
10
FB
0F
E9
F2
02
1B
0C
F8
FE
F3
0E
05
F5
09
00
F1
0D
FE
0D
0C
08
F5
FC
E8
E9
00
FE
10
ED
19
E7
EF
05
F5
EB
F4
FD
EE
13
02
0A
F7
FB
05
12
F6
0B
07
EB
F7
15
0C
01
0B
02
FA
09
03
FC
F6
F3
1A
E7
EB
F5
EE
01
EB
E7
E1
00
14
FD
ED
FA
09
E9
F4
12
17
F8
02
00
1A
0A
11
17
F5
16
14
F2
11
0A
F9
F4
01
05
FA
F0
19
1A
F6
FB
F9
03
0E
11
1B
EB
F3
0A
0F
04
06
08
F2
F4
FE
19
0D
06
0B
FF
13
00
FE
08
07
FE
F2
03
0A
15
FC
0C
12
0C
0C
03
EB
0F
F6
F8
EF
FC
10
EE
10
09
17
0E
10
1A
EC
0F
F4
F3
F2
F4
FC
F6
F9
F3
15
01
05
1F
F6
E7
0D
F8
03
0D
F9
E9
FB
0A
0C
F9
0B
03
0C
0D
F4
0D
ED
FC
09
14
F0
14
15
E7
FE
FA
07
1B
1A
0B
FE
08
EA
0F
F4
0E
E8
0E
FD
F6
0E
01
ED
F8
14
04
10
F6
F2
F1
07
14
03
F0
F0
00
13
0F
12
F1
EB
FA
F1
F8
0D
02
EF
01
14
F8
F3
F0
F9
13
03
09
02
07
15
F0
EC
02
18
E8
DC
19
06
F9
F2
F0
F8
1A
10
F5
14
04
F1
FE
03
04
F9
0C
18
04
04
01
0F
FE
0B
F7
F9
F9
01
14
04
F7
FD
F2
10
10
F1
F6
F0
06
19
08
F8
FA
ED
EA
FC
13
FA
F9
EE
E7
F9
F0
05
F3
D1
22
0E
FA
00
E9
0F
EA
13
00
F7
17
10
04
EE
EC
D6
21
F3
F7
F6
11
F7
FC
ED
EE
0A
07
F3
0C
02
F1
F9
00
13
01
ED
12
0D
F9
E9
0A
FE
02
F9
0E
F2
F2
08
10
1B
FF
EB
0F
EE
FE
01
F1
FD
11
12
F2
12
F3
EF
FE
0E
16
0B
F2
06
FF
EC
05
0E
F9
00
FA
02
EE
FD
04
F0
14
F0
FF
F3
FF
FB
F1
ED
03
15
06
04
02
05
02
0D
07
FA
0A
EF
E9
EF
03
0D
05
F9
00
0F
07
0F
17
FF
0F
12
EE
E9
EF
09
11
16
EA
F1
F1
ED
E7
F6
11
F5
0C
FF
0E
F7
F2
E3
1A
04
10
19
F7
FC
09
01
F0
17
FF
F0
F1
FA
EF
02
03
02
FE
04
00
0E
ED
FD
06
FC
EE
0E
02
0B
EE
FA
F4
E8
F5
E0
05
FF
EA
01
FD
18
0E
F1
FD
EC
0C
FB
0E
ED
E8
FF
04
FF
00
04
FD
04
F7
F0
0F
01
06
ED
10
F7
10
14
EB
04
0A
F7
07
13
F5
05
05
0D
11
0C
F4
08
E8
09
01
F7
19
1B
FC
F0
F5
F8
0B
FF
05
00
EF
12
F0
04
F9
00
F9
FA
05
FF
FB
F5
F2
F8
0A
08
14
F5
E5
F9
FD
08
FB
F4
1A
12
0A
06
FD
14
12
FF
F0
07
EF
10
F4
1C
02
FB
EF
06
16
03
FC
0F
0B
02
FD
15
11
12
EC
04
13
F9
EB
0F
FA
F4
F0
0F
FA
08
FB
FF
12
EC
F1
F7
EE
1C
F9
F1
0F
F0
11
F8
EE
06
16
F7
F9
0A
11
F0
16
FD
FB
F1
F1
0E
E7
08
E7
FB
06
F3
E5
12
E8
F1
0F
1D
09
01
0D
EF
00
09
EC
E8
FB
0E
04
0A
F8
FF
EE
04
13
FF
05
03
EA
07
06
E4
00
16
F1
1B
ED
08
F9
F5
1B
FF
17
FC
00
F9
07
03
FA
02
FE
15
F1
FA
FE
F7
F6
1A
F8
E9
F5
1A
E9
EA
12
14
EC
09
EA
11
13
FF
1A
10
18
0E
13
FA
FC
EA
FE
1B
F4
07
0A
F9
19
00
F5
E8
F5
F2
11
12
06
FD
E8
F9
0F
ED
F4
EB
FD
0C
00
0E
F7
06
EA
1A
F1
10
0F
16
E8
12
15
19
19
FF
FC
FF
EE
F4
FF
04
E9
E1
13
04
10
01
FA
01
17
FC
06
1A
1A
F1
05
12
09
F2
16
1A
07
03
E9
17
14
F2
07
1A
01
F3
07
00
F8
FE
FC
0A
F4
18
FB
06
08
17
04
F3
1A
F6
0A
14
F1
1B
F1
02
01
F4
12
17
EF
13
12
F2
F7
F4
EC
FA
ED
F2
F0
08
10
10
14
03
F7
F8
F0
FE
F9
0D
0E
1D
06
0A
01
02
EC
1D
0A
1C
0A
F5
EE
07
09
0F
E5
FE
F6
F6
07
07
FE
03
11
EB
FA
02
1F
FD
F6
ED
E9
1B
13
07
1A
05
FE
06
14
F0
1C
0A
19
11
27
FC
F0
26
F7
08
14
0E
13
24
FA
07
16
E5
09
18
FF
EF
05
F9
06
0E
0F
18
E7
13
EC
00
EF
F4
F7
FA
F9
10
FD
00
14
0C
FD
F2
0F
F4
07
10
0B
0B
15
02
1C
0F
F2
04
EA
03
0A
1C
EA
F6
F5
0F
F4
15
EB
F3
16
EB
0A
07
FC
F3
F8
12
0F
18
EE
17
FF
FA
E9
14
15
F2
05
0D
16
F9
F6
FA
0E
18
0F
09
1C
F3
06
E5
F8
EB
F1
03
F1
00
E0
DE
E7
E8
EB
DE
EC
06
1B
0C
05
0B
03
FC
FA
FB
FD
09
04
17
01
FE
FE
04
15
1D
01
FA
FA
FC
EE
FE
19
0B
08
09
10
08
04
D3
EC
10
1D
F1
F6
10
F4
FD
08
0B
FE
F9
0F
08
F2
FD
ED
01
12
02
EC
FE
FB
1C
FB
F3
11
F1
FC
12
FF
16
10
16
FA
04
F3
07
FF
13
1D
00
0E
06
F6
0A
09
F4
F4
F7
05
FB
F0
FC
EE
0A
FB
0C
EA
10
F8
F7
0F
F4
F1
F7
0B
F7
FC
04
EF
0E
FC
19
F0
1C
08
15
14
F3
10
F6
F7
F9
02
0F
01
F1
F6
FF
F5
FF
F3
01
04
FF
13
18
19
06
E6
06
14
F2
17
1B
E5
FB
F4
17
F6
EE
F4
15
FF
F0
17
0F
F3
F5
FE
02
EE
F9
F9
1B
15
E8
FF
03
07
F9
13
EA
F3
FB
FD
02
FF
ED
EA
E2
08
01
1E
00
16
FD
EA
EE
EA
F3
02
0A
F3
EF
EB
F5
EA
0E
01
10
05
F4
0B
F4
F6
FE
FF
10
0A
10
0B
02
F5
EC
EE
F5
1E
16
0D
1A
E9
1F
20
FF
F8
0C
F8
FF
00
05
14
F6
11
09
0F
F3
03
0D
0A
04
0A
F4
F8
0E
05
0F
04
07
0E
F4
14
ED
F3
18
0A
F2
F5
01
16
FF
E3
0F
1A
FD
F5
11
14
0E
EF
1D
EF
04
09
EC
FD
E9
01
0F
14
00
FC
F4
F8
E6
10
07
F3
0D
13
E4
F8
FA
10
0A
18
19
F1
FD
FD
13
F9
FF
0A
1B
10
13
01
F4
04
F5
12
10
03
12
E8
17
0C
02
10
F4
04
07
0D
F8
14
04
07
F4
FB
02
01
0E
14
06
F9
F1
E6
11
F3
FC
12
F6
EF
03
16
0C
F2
09
0F
F4
11
FD
EE
F1
0D
1B
0C
17
14
FC
0E
EE
F8
E6
F7
21
F9
15
09
FC
EF
F6
07
FE
F4
EC
0D
EE
02
01
F7
FC
FF
04
01
06
F8
05
F5
E4
18
0A
1B
05
EF
12
10
13
05
14
F2
1A
F4
0B
FD
EC
F7
F7
FF
EF
EF
E6
16
0C
05
FE
0D
F6
13
E6
0C
E3
FD
F8
DC
F1
0B
DD
FA
E3
F3
F8
F2
E3
16
F9
DA
1C
08
00
13
05
03
FA
FC
FF
F2
F9
F3
1F
14
18
ED
F1
F4
09
0F
0B
F2
F8
F2
EB
05
F6
E4
16
05
0B
F1
08
E9
0A
06
EC
EA
E9
0B
F6
0C
F4
FD
0D
09
FC
0E
F2
1B
F1
0A
13
FD
FE
F2
18
06
EC
0A
FC
EA
EC
EC
F8
0F
F8
F0
0B
14
F8
F6
F6
08
F1
02
FD
F9
F5
E3
0F
12
FA
FF
F4
01
EA
0E
0B
0B
E3
FA
0E
FB
02
ED
FD
09
F1
08
EB
15
0A
EE
18
FA
EB
F6
06
ED
EA
E9
FB
0E
1B
17
04
02
0A
EB
EC
11
10
EB
09
01
F9
12
17
01
15
16
17
0D
FD
E7
FA
F2
1C
FD
06
EC
07
0C
01
F3
1C
F9
F9
09
FB
0A
0B
00
11
F3
17
0E
0A
F0
F1
F4
08
F0
0C
EC
05
FC
E9
FF
0A
EC
FA
FC
1A
06
15
01
FD
10
06
09
04
F3
FE
03
F2
0A
0E
E9
F7
EA
E0
0F
FA
10
01
0E
FE
EF
10
11
FB
13
FA
08
12
0C
04
17
FF
02
F6
0A
1C
0D
EE
13
FA
ED
F0
0C
08
10
17
F2
ED
02
F4
FF
E5
08
11
09
F4
0D
F0
04
FE
0B
FA
0D
F3
F1
F2
F2
05
03
EC
F7
EA
F1
FA
0A
EB
09
13
18
16
0F
0C
FA
FB
05
17
ED
FE
F5
FB
F4
0E
06
F6
17
FB
1B
00
06
F9
FB
02
0F
1A
FA
13
02
15
F4
F6
02
03
0D
02
11
F6
F8
F6
08
EF
13
00
ED
0A
0B
0B
1F
FE
F9
05
EF
E6
FA
07
EF
FA
EC
0C
0B
12
FB
EC
11
F9
F5
0D
0A
FA
FD
F4
EC
EC
11
FB
05
12
E8
16
21
EC
0A
F9
F8
03
10
FA
F5
FB
15
EF
00
EC
EF
F4
F4
F9
03
0D
F8
0D
02
1B
03
15
EA
F3
12
06
EA
E5
FC
F8
02
FE
07
08
F4
04
FB
0E
F7
F7
F8
18
0C
06
00
FF
FA
F6
05
0E
00
0B
10
FD
E9
FA
15
04
0B
10
06
0E
FF
08
08
0F
04
FB
F1
FC
E5
13
05
13
1D
F2
11
F3
15
F1
0C
04
04
F5
02
1C
E4
F0
13
F6
FD
11
FC
F2
EB
F3
12
01
07
21
EF
F2
10
EC
FD
E6
01
E1
05
03
FD
00
0A
FF
E9
F3
FE
0F
F9
EA
E9
F7
0B
F8
F8
0B
00
0A
FC
0D
F5
FA
05
FE
F8
01
F8
FC
11
F5
F9
F6
F4
EB
17
00
F2
15
08
0D
10
F8
F3
ED
FE
E4
FE
E1
09
EE
13
FE
FC
E9
02
E3
F6
E9
FD
E4
00
FD
05
F7
0B
FC
FB
04
EC
00
17
F3
F1
05
F9
FB
FC
F6
06
01
0A
EB
EE
1D
FF
E9
F9
0B
FD
FB
0D
11
FD
15
17
FA
11
13
FD
0E
FA
0F
01
0B
0E
0F
F0
0E
F7
E1
06
E9
01
F4
11
F8
0D
FA
F6
07
14
F9
F3
E9
F4
F2
00
FB
F0
16
F5
12
EE
1A
F2
ED
F9
FF
16
F1
10
00
02
E2
F3
07
06
0E
09
DD
08
03
03
08
06
E8
04
FB
04
E8
F1
0D
00
03
04
11
0D
F9
EA
ED
E9
FB
0F
F2
05
FB
17
F0
E7
FE
EC
FB
FC
01
FA
01
FB
16
01
03
FA
F5
1B
F6
EA
0A
0E
E7
0E
16
F0
05
0E
F8
EF
F8
EE
11
07
12
F4
16
0A
FA
F4
1A
08
18
EC
F1
FE
0A
0F
1A
04
FE
F5
16
0B
04
F0
0E
0C
18
EC
06
1A
F6
F2
08
ED
13
FA
EE
F4
F7
08
EF
0F
05
F9
0B
00
EF
FE
E6
FF
00
EC
02
03
F8
0A
EB
0E
07
E9
FF
F4
FA
05
13
F6
0A
FD
F4
EC
09
06
0D
F6
0F
11
FD
12
F7
0A
F3
FB
ED
F5
EE
01
01
0A
F7
F0
10
FE
01
FD
EF
07
F0
E9
15
FC
F5
EF
F3
05
FB
F3
F3
05
DF
EE
15
03
F3
10
F2
10
F8
F8
FD
EB
00
FD
09
FB
05
F0
07
0A
1B
16
01
08
04
08
E3
11
FF
EF
00
12
FB
04
FF
EE
0F
11
03
FE
F9
0E
19
F9
0B
10
F8
0D
13
EF
EB
18
12
07
04
F2
ED
FC
15
FA
09
11
F5
13
0A
F6
0F
1A
0C
02
FF
F1
00
F9
0B
0C
FA
F3
EC
FF
F0
EB
0B
1A
10
EB
EE
06
F2
0E
EE
EC
E3
F2
F4
F0
02
0E
0B
02
F1
04
ED
F0
09
F6
04
0E
FA
F1
F9
F9
EA
E7
FD
13
06
F4
F3
F1
F6
FD
F6
12
17
04
07
03
19
00
15
17
F3
FF
11
F0
F1
0A
EB
0F
0F
0B
0B
12
03
07
07
F1
06
06
11
E6
16
0A
00
FC
11
0D
F8
0C
0B
15
ED
F3
0D
0F
0B
F0
F9
EF
02
FD
01
08
F2
EE
11
18
F8
08
EA
F3
F7
EE
E5
F4
18
EA
06
ED
F6
F1
F9
FE
E9
16
ED
00
11
12
F6
FE
1B
10
02
E9
00
EA
FE
F7
DC
FB
00
06
15
F0
16
02
FC
17
12
F3
0E
FF
04
F8
02
F6
12
06
F2
03
EE
0B
1C
EF
00
F2
FC
04
F2
0F
FD
FB
F1
ED
F1
03
F2
03
F7
F3
02
F9
FF
10
EC
E7
02
21
F2
0A
04
EB
E9
FC
18
EC
0E
F9
F9
FD
08
F4
FD
11
1A
EF
ED
F1
1C
F5
EE
EF
03
EF
13
F4
15
01
F5
F9
03
F6
FD
EA
0A
01
19
EA
02
08
09
EC
FF
05
ED
1C
F4
0B
02
03
0F
11
0C
ED
EB
17
EF
F1
0D
F8
10
18
0D
18
FE
08
F2
F4
03
09
16
FA
09
F7
0D
FD
01
1B
F1
F9
F6
E9
0D
F4
EE
F5
FB
03
05
15
0C
0F
10
18
12
F3
01
13
F9
16
FC
F4
04
07
0E
13
E7
02
DD
1D
FE
00
EC
00
F9
12
DE
0D
08
08
0F
FB
07
15
EE
F9
08
07
0D
04
F2
FE
07
06
07
E9
02
F5
0D
18
07
1A
10
06
11
F2
0A
EA
F1
0E
EF
05
16
07
F9
08
F4
F8
0B
07
00
EC
18
FB
F6
F7
FC
F8
14
06
03
FA
05
EF
EE
EC
0B
04
0A
FB
00
FC
EF
07
06
06
08
E8
FD
01
08
FD
FB
11
0B
14
0E
F8
FB
05
0E
03
00
EB
F4
1A
17
FA
16
FD
08
06
E0
F3
0D
04
EF
EF
09
14
1A
F3
0B
0B
F6
ED
EA
F5
14
E5
FB
F4
07
11
03
F1
E5
15
F1
F3
15
EC
FB
0B
0B
F9
E5
FC
F8
FB
E7
F1
07
F9
06
FC
01
FC
F3
FF
15
FE
EC
06
F3
F4
EF
F7
04
FE
04
0B
EA
FF
1B
FC
E5
F5
F4
FF
EE
F6
0E
04
F3
08
F8
FB
09
F0
0E
EC
0B
FE
EB
F4
E9
FB
11
FC
D7
0A
EA
FF
11
0E
E8
F6
FD
F0
F8
17
04
01
10
F2
D9
FE
EF
13
EC
FB
F0
F7
F0
EE
E7
15
13
08
00
EC
FC
17
04
EB
ED
04
0F
00
01
FA
09
13
E6
12
08
EA
F5
01
FA
0E
FD
F2
F1
01
0B
FB
14
12
05
17
FE
E9
ED
0B
F8
13
16
13
F0
FD
09
18
F5
00
F5
08
08
FD
0A
12
FB
FC
F7
0E
19
02
F5
07
17
11
1B
F7
17
F3
07
F9
14
11
02
08
1A
E7
EA
F9
0F
FF
17
0C
13
EF
05
F6
F6
F9
FD
0E
F5
FB
E2
FF
F9
0B
0D
ED
06
0F
EE
16
F5
11
12
14
03
FB
04
F4
FF
02
0D
02
F5
FA
F7
F8
0B
EB
16
17
FA
FD
0D
EE
05
07
03
0A
E9
EB
EE
FC
F2
FE
16
FF
18
13
09
15
17
0D
12
F5
1C
04
11
01
05
FF
12
F5
ED
15
F5
07
E9
EC
F1
FE
E6
F6
E3
06
FB
EA
FA
05
06
05
0B
04
E5
FF
05
0A
FD
EE
20
0A
0C
EB
03
0B
ED
EA
12
10
08
F5
10
15
EF
01
FA
08
0F
F0
03
E9
07
F3
EF
0A
F3
EB
FF
0E
F3
F8
09
12
03
0D
EB
0C
F3
F7
15
00
08
FD
F1
03
EB
10
FF
18
ED
F6
05
12
01
FF
1B
08
07
08
EC
F8
0B
00
05
FC
F3
EE
F2
E9
F8
09
09
0A
EB
14
F0
F5
F1
08
10
18
EC
12
15
0E
01
FE
06
E4
E3
01
EF
0A
EC
F0
05
03
FD
0C
15
10
EC
E9
07
EE
09
F7
F2
13
FA
FA
14
12
1C
10
FD
F8
08
02
FA
18
04
0F
07
F3
1A
14
FA
FE
FD
14
FE
02
FD
E9
F3
02
0B
E7
08
05
FC
17
FC
10
0B
0B
00
13
FD
0D
06
0E
0F
F5
FE
11
05
0F
F6
F3
F4
13
02
E9
07
F1
F4
FC
0C
F7
F9
F7
00
F7
F8
FF
ED
E5
07
07
EB
EA
01
E8
05
16
00
F8
00
09
EB
20
F6
0F
0E
08
0F
F1
06
FB
02
F4
01
EA
EB
10
1D
09
06
0A
F9
FB
FC
05
FE
04
1B
10
0E
05
08
18
19
15
FC
0B
12
02
04
F5
F5
01
F7
12
0E
14
14
0C
08
1C
FF
0C
F3
FC
08
08
03
F8
E8
EB
03
ED
0C
F8
18
0E
FE
E8
10
13
F7
10
F2
08
10
F1
FC
0E
07
12
0E
03
FB
F6
0D
00
17
EB
02
0D
13
0D
07
EF
06
FB
F0
17
F4
0C
04
F6
0A
05
0A
04
10
EE
EE
F5
04
09
EC
17
0B
FB
0F
05
FD
F1
F2
FF
01
0D
F9
0C
F7
EE
06
F6
E6
0F
17
13
F3
F0
05
03
05
ED
05
00
FA
03
10
09
08
F1
16
ED
E8
10
00
04
EC
04
0A
FB
F1
F8
F2
0D
0B
11
F5
0D
0B
EF
1A
12
FE
F9
F4
F0
ED
11
E5
14
00
0C
13
FB
07
10
EF
1B
F9
E6
17
F8
F3
09
F3
10
08
FC
09
0E
04
04
FD
07
02
0C
0F
0F
17
FC
03
17
02
18
FE
E8
17
15
02
01
14
F0
FD
FE
1B
F0
FB
14
F8
00
ED
0C
14
15
F9
F3
F0
0B
FE
EC
16
09
F5
12
FD
10
0C
F5
05
05
00
08
E9
F6
F3
0F
F0
ED
ED
08
0C
10
F7
FA
F0
FF
02
0C
EE
07
F7
ED
F0
FD
FC
0D
F8
F4
F0
08
F8
FF
03
FD
0E
F6
19
F2
F5
0B
03
FE
F7
05
11
13
E6
09
1B
FC
F0
10
EE
0C
FF
EF
01
11
ED
10
04
EC
E7
08
F4
F4
F1
F1
E6
0B
08
FA
17
EF
09
08
F4
FF
E8
F8
00
09
EF
17
03
EC
F8
F3
17
F4
0F
15
F1
EB
1B
FE
08
13
F6
05
F1
15
09
1B
F3
F2
F2
E5
0F
EA
EF
EB
F4
02
F1
04
F9
F6
F7
05
0B
03
EE
12
03
F8
0C
F4
FA
E7
02
05
F4
E9
F3
EB
F1
16
FF
ED
FB
15
12
EB
EE
09
FD
F3
EA
0A
0D
E9
19
1C
FA
ED
EC
F7
F8
F6
E6
03
FB
F2
FA
EA
F7
EB
06
FE
F9
06
FE
F9
08
14
FF
0E
13
13
F7
07
FE
EF
00
08
19
F8
FA
08
08
F7
F8
0E
FD
E9
05
EF
FA
16
F4
00
FF
02
F8
02
F5
E9
15
04
19
0E
18
F2
13
F8
12
EB
F5
0B
0F
06
08
00
16
1A
04
03
FC
F1
FB
F8
FF
FA
FD
10
F8
EC
01
F7
EA
19
17
0D
13
10
0C
0F
09
0F
0D
04
13
0E
F3
05
06
FB
03
EF
02
06
0A
04
FB
1D
F9
0D
04
E8
03
06
0A
0B
E9
F9
FC
08
FF
02
F1
1B
02
0E
ED
08
03
E9
E6
F5
12
E6
F4
F5
0F
03
FB
ED
EF
F4
15
06
E4
0D
F9
F2
07
EC
07
F8
F0
EC
03
F5
F0
FE
13
01
EA
0A
E1
FE
E7
F2
FD
E9
F2
E6
21
03
08
F3
EA
0F
05
F9
F7
08
F2
0E
EF
F7
F6
FA
FB
FD
FB
02
0E
13
0D
F6
E4
F8
17
06
1C
13
01
F8
0D
EF
04
F1
05
12
FC
FC
0F
F1
0B
F6
FA
06
FC
F3
FD
0B
0D
F5
FB
12
F9
FA
00
E8
EA
16
EB
EA
05
EF
18
0B
FB
F6
06
0D
05
04
01
DE
EC
0D
0A
0E
F1
F2
15
1A
FE
E1
F9
12
F3
EE
03
02
EB
00
0A
14
EB
E5
03
F7
13
09
FC
0A
EA
EF
F3
0A
12
F0
E6
09
11
05
05
F8
1B
1B
EB
05
03
0D
0C
FA
14
12
00
FB
F2
1A
FC
04
08
F7
F7
09
04
EC
F2
0C
EF
00
0C
03
1B
F0
18
EB
12
06
FD
03
0E
04
03
06
12
10
16
F9
10
F7
0C
0B
F3
F9
F7
02
05
ED
00
F8
0D
10
06
F5
F3
10
F1
F6
05
0B
09
00
E7
12
02
01
13
00
F7
FC
02
05
F0
19
F2
0C
FD
01
05
F6
19
0B
16
F9
03
EB
08
F4
E8
20
13
F9
F3
05
F7
10
F4
EF
F9
F0
F2
FA
EF
01
F4
F3
02
09
17
02
08
F6
18
FF
F7
06
01
06
05
E8
05
FD
ED
FF
FF
0A
0C
0F
FD
F3
F4
02
01
10
EA
F8
00
00
FE
0F
EE
FD
ED
FA
04
FE
F7
EA
0F
0D
0C
F9
EE
00
09
FA
F1
E9
01
14
F5
FA
F2
FA
03
FD
0B
13
14
08
FB
01
14
F6
0B
08
13
FC
FC
03
FD
02
FA
00
F8
02
FA
EE
01
01
E9
00
08
FF
FC
04
F9
F6
E6
EF
00
F5
F6
08
11
10
FC
FD
01
0D
F3
06
09
00
FD
0A
03
0E
0E
EF
03
0E
09
F8
08
01
FE
F6
EF
EB
F5
EC
0E
F1
06
12
13
09
EA
0E
04
05
09
08
E9
F6
F4
E5
E9
1C
19
F0
0A
FC
0E
F1
07
15
02
F6
05
05
F4
04
F0
11
0E
18
13
FA
F3
13
04
17
F9
EA
0C
0C
FB
EF
02
FE
05
1C
0F
09
F2
0B
FF
12
17
F6
FF
F4
FE
03
19
FD
0A
17
F4
F9
14
F2
FD
11
02
0D
04
09
01
04
F6
FA
E9
F4
EC
FC
F2
FC
0B
F2
0E
F2
F1
06
F0
F1
E2
19
FA
00
EE
02
F8
ED
10
15
0A
15
ED
F2
EF
F9
F8
F3
08
F1
EA
06
19
0A
EF
0E
0C
FC
02
05
07
14
03
12
0C
02
00
FA
02
F0
1C
01
02
00
E6
14
FB
EB
E4
10
FC
07
F7
07
EA
04
09
0C
EC
F0
E7
10
02
0B
F7
F6
02
01
FF
11
0A
E9
FF
EB
F4
0D
F1
07
05
10
10
EE
0E
F1
FE
EE
07
0C
08
0A
0F
F3
F3
F3
F0
01
F4
F2
0E
F8
01
13
FA
EE
F2
E7
0C
01
EE
0A
FC
E7
E8
0F
F0
EA
04
15
F3
0A
13
0F
13
0A
09
0C
E9
EE
0B
19
E9
F1
0E
F5
0F
FE
06
F5
10
FB
F3
0A
09
EF
F4
00
ED
F0
FC
FA
F8
08
EB
F1
03
EE
02
10
F5
12
06
F5
FA
F8
0D
EB
E9
FE
F3
FB
0B
0F
FF
11
FF
E4
E9
15
1C
F6
0B
00
0E
04
F3
F9
F1
E9
1A
F8
18
EF
F0
13
FA
0F
0E
E6
0B
09
FE
09
F1
F0
0F
F9
F8
07
09
0A
F4
16
EC
0B
0E
07
02
18
FA
F0
08
11
F2
F7
08
FD
FC
05
0E
FA
18
F9
E6
1C
F4
0F
12
F2
01
FD
0A
EF
EA
FB
F1
F7
F9
11
16
F7
FF
F1
FA
F4
0C
E0
07
12
FD
08
EA
05
10
EC
00
F6
00
00
FE
06
03
FF
04
FE
FB
F7
15
F7
F2
F6
E4
14
F9
11
FF
0D
FC
02
F6
00
ED
01
FD
16
F8
03
15
14
ED
F4
0C
FB
0A
F8
00
0D
F7
F7
12
FD
DB
F4
E1
EF
04
0A
EF
01
F2
DA
0E
F4
09
F6
FE
0E
F3
0A
0F
11
02
F7
F7
FC
FD
13
0B
F7
05
FF
FA
0A
17
F7
0D
14
1A
FE
07
0C
07
FC
F2
03
EA
FF
F5
FC
FA
06
1A
00
F5
F7
EB
05
FB
F1
F1
FD
0A
12
0A
F2
FA
F8
F5
F5
EE
02
02
0D
13
F9
E9
1D
F9
E4
10
0E
FE
14
FF
F4
ED
FE
E4
00
F6
E7
14
FB
E5
EF
F4
EF
F7
0B
ED
F9
02
13
FF
0C
10
E4
0B
ED
0E
FC
02
FE
11
FE
FA
08
0B
11
E8
F0
0E
F8
0D
F6
14
F3
11
F2
0C
F0
EF
10
04
06
0D
10
05
F3
FE
06
0F
06
03
FB
0B
0D
F3
15
01
0A
0D
F4
0F
FF
ED
F3
F8
12
11
E8
1B
F5
03
01
F5
02
F1
EA
07
F6
16
ED
FF
F8
05
FE
0B
01
EA
FE
12
F3
10
02
0F
0D
FC
07
0D
0B
0A
08
09
EC
22
F6
EA
F9
FC
EA
0F
F8
07
FC
F5
F1
FC
07
0F
F1
1B
09
04
EC
E7
EF
F9
EF
1D
20
11
17
03
05
F9
ED
E6
12
FF
EA
18
F5
FA
18
0E
0B
EA
EC
F8
07
EE
FA
11
ED
F1
03
11
0B
EB
F5
F1
1A
0F
F6
EF
00
0E
EA
E5
EC
F9
16
ED
0E
F8
EA
1F
1D
0D
EB
FF
F7
07
EF
0D
06
0F
0A
05
FD
E9
00
06
F6
00
F7
F9
0B
12
05
EC
0E
0F
EC
F5
F3
04
18
0F
11
FB
FB
16
02
01
F1
F3
0D
0D
01
FE
FE
F2
FC
F1
07
E8
EC
FB
F7
01
F4
01
03
E8
17
0E
F3
F1
0C
01
0F
01
E3
F9
09
ED
0F
E8
E4
EB
F7
10
01
00
0A
1F
1A
FE
FA
12
0F
FA
F5
F0
F4
E3
02
04
0F
01
05
07
F9
10
F5
09
09
ED
F5
03
07
F5
14
10
0C
04
FB
E1
09
F3
F1
0C
E7
12
F9
13
08
F7
00
07
FD
0A
F3
EB
F5
02
06
03
F8
18
13
FD
17
F7
11
05
F4
F6
1A
F1
11
FD
F5
F6
14
06
0C
F4
F1
04
0C
F9
EB
EF
1A
13
F8
01
FB
09
F2
F2
FA
0A
0A
FE
F7
00
12
17
0F
F1
EB
F4
10
0E
F9
FF
F9
0C
E8
13
F4
EE
FD
F4
07
12
15
ED
05
0B
0B
FC
F7
0B
04
EF
00
00
FB
EC
01
EC
FA
01
F2
EB
04
F9
F0
03
FD
0C
01
18
F3
12
17
0D
14
E6
01
F6
EA
E6
03
0B
0B
13
11
FA
FB
EC
EB
F3
0B
FC
01
0C
06
F9
FD
F5
FC
08
F5
F7
14
02
E8
20
0A
F5
0B
04
FE
06
EA
14
08
EF
F9
11
FA
07
13
05
0E
08
0A
0C
10
FB
04
09
0E
F1
EB
1B
08
EF
FD
18
FC
03
F7
07
0E
E8
FD
FD
EE
05
F8
0B
EF
14
07
F7
17
E7
01
0E
FC
02
11
05
ED
F0
0F
09
EA
E9
FC
02
FB
01
E6
09
12
E9
01
E7
F9
E7
F7
FF
07
F4
FC
21
05
FC
11
F3
02
F2
EF
F7
01
FF
02
FE
01
EA
FA
0C
10
04
F8
EE
F6
EB
EC
03
F2
FA
0F
FC
F8
05
07
0B
FF
F0
FF
F5
F7
02
0B
11
F9
F2
05
F4
EA
EF
F0
02
0F
1C
0C
FD
EF
08
FD
F0
16
F4
11
F5
F5
FB
FF
05
12
07
0E
F7
12
03
01
09
09
06
F0
16
F5
FB
04
00
F1
FC
09
15
EA
14
F5
F1
19
18
04
0B
F6
09
FE
F2
F4
F8
FD
0E
00
0D
06
00
E5
F2
06
E9
ED
03
05
EB
F8
0C
F1
F7
02
0B
14
03
F4
12
EB
0D
F4
FF
00
FB
21
F1
13
15
07
FA
F2
E6
F0
10
11
F4
13
13
00
1A
0C
ED
09
F0
05
07
08
FA
0B
06
11
F4
03
0F
EE
14
18
F2
0D
0E
15
FE
F3
ED
F4
FC
08
E1
06
FC
FF
14
17
FE
0E
0B
0F
FC
EC
17
13
0D
F2
1B
0D
04
07
0F
07
F4
12
F3
F6
FD
EE
FA
EE
F1
04
04
15
18
06
07
05
EC
FD
EB
F2
FD
F9
09
0F
F8
FE
06
0B
08
F7
F4
10
EC
03
06
14
F6
0C
01
03
0E
E9
FD
FA
F1
FD
08
0D
1D
35
E9
16
21
0A
04
08
12
00
27
F1
11
05
ED
F9
EE
F9
01
EB
05
01
E0
F7
EC
EF
09
FB
F6
0F
F0
18
FB
F7
01
EA
EC
F1
15
FD
03
F3
FC
03
EF
F2
08
09
14
01
FE
FB
02
05
FB
12
F6
FD
11
EC
14
16
04
FF
17
F6
EE
0B
0E
0B
FB
04
14
03
0B
F4
01
01
F3
16
00
13
01
13
F3
FE
EE
15
0B
FB
0E
F0
02
FB
FA
EC
F6
06
EE
F0
F6
0B
0D
F9
02
11
16
E7
06
17
04
FF
11
EC
12
13
0C
12
07
F3
0C
F0
F0
F6
F8
09
F8
0A
EA
F7
02
EA
FC
F0
0B
F1
00
00
EA
00
EF
FD
E1
0E
16
1A
FC
04
07
0E
FD
F9
F4
FF
FB
0C
F4
F5
F7
ED
09
F9
FE
03
F7
EF
0E
FE
F8
EF
FF
F7
F5
11
DF
17
EC
E5
FE
FB
F3
F9
F6
FE
EF
05
E4
03
06
EB
F6
16
F2
EF
01
11
F4
ED
0F
0C
08
ED
1B
02
0E
0F
F8
13
15
11
02
06
19
11
FB
FB
0F
EB
0D
0B
1B
06
F0
FF
07
07
F3
0F
0D
F5
F7
07
F8
07
FC
01
FB
E5
EE
F8
07
EF
F5
EB
EA
F0
FE
EB
FC
14
11
EA
09
E5
F3
1C
27
31
F5
F7
2F
F2
16
19
20
FA
2D
EA
14
15
F0
03
00
09
12
EB
12
0D
E5
F4
09
04
10
EB
EA
11
11
05
F2
EF
0E
F3
01
F1
FA
FA
FF
0A
EB
16
00
0A
E8
FD
0F
FB
F0
05
19
F5
02
06
FC
E5
F7
F3
FC
06
03
03
0C
10
00
EF
04
00
F4
FE
12
0A
FC
00
F3
00
10
FF
11
13
ED
12
F1
15
02
1A
12
0F
F1
FC
14
0D
F0
EE
F1
05
F2
11
19
0E
00
F6
05
08
01
E8
06
11
19
12
EA
F0
F5
F4
FA
ED
1C
FC
F9
0E
EA
F2
03
09
E1
12
05
FD
FE
F5
14
F0
EE
F9
10
01
14
13
12
14
E7
19
0B
F6
EC
0A
F5
09
E4
1A
0E
E4
F0
F7
09
10
17
0E
13
01
ED
F2
FE
15
0C
FD
14
10
11
F9
09
F5
F4
0F
F5
EF
E9
05
EE
FD
E1
F4
E8
01
FC
15
12
0A
08
0F
15
FF
FC
E9
10
08
0F
FD
14
0B
F2
F5
E9
00
0F
F8
F7
1A
FA
E7
F1
FA
FB
19
01
0C
14
F8
09
19
05
10
FD
E8
F8
F2
FF
F4
FA
12
06
0D
FD
FD
F4
F2
F8
F7
F2
11
F5
05
0C
F6
F6
0B
FE
E7
0C
F4
FA
FE
EA
1E
20
28
FC
F8
28
EB
FA
21
05
F6
27
FE
25
FF
DC
09
F3
0E
15
F5
FB
FA
EC
F0
E6
FE
02
F7
E9
04
10
15
FB
13
F5
08
E8
FB
03
0A
00
12
F6
14
07
FD
DD
13
08
05
03
F2
F6
EE
ED
FF
FB
0F
18
13
0D
0E
19
F6
02
FD
F1
01
EF
ED
03
08
09
0A
F9
02
07
0F
FE
FB
13
09
EB
E9
FC
08
12
01
FA
0B
02
0D
F1
18
1A
12
0A
06
EC
F4
F2
FB
FB
00
0B
F7
0A
FD
11
1B
0E
07
EA
EA
FF
F2
F3
F7
04
F6
0B
04
E9
EF
E8
09
ED
FC
06
EC
0E
EE
FB
FE
0C
F8
F9
03
F8
12
F0
F5
D6
1B
01
1C
F0
09
03
F5
E9
10
18
06
0E
0A
0B
10
02
11
F7
00
F0
0A
F6
16
F4
FE
F9
ED
0E
F3
0E
FC
FA
10
10
EB
0D
11
F0
E9
FA
ED
0B
F1
E3
0E
F8
0D
F0
06
01
0A
0B
F3
06
07
EE
0B
FA
F4
F6
0D
06
FF
FB
FE
11
0A
00
13
00
02
F2
0E
0A
FE
F8
03
F6
09
F6
FF
0B
EE
11
E9
F5
EF
12
FD
FF
F9
F0
F1
01
03
EA
FF
FB
EA
00
15
0D
F3
18
01
F7
0B
FC
F6
01
01
D3
00
FA
F9
ED
0F
FA
17
EA
09
0F
06
FF
02
0F
0E
E9
EC
EF
F6
F8
F0
13
EA
DF
0E
E4
F2
FE
06
13
08
15
F9
0C
03
07
E8
0E
01
00
00
06
F2
F8
F1
E9
FF
F7
18
F8
F6
F2
F5
F9
05
07
00
EE
02
0A
13
FB
1B
F7
F4
0E
F9
0F
FD
FD
0B
0C
0C
F1
04
0B
FA
17
0E
EF
12
13
05
15
01
11
02
07
FF
14
10
00
03
F4
18
01
F0
1C
0E
0F
F3
09
FB
00
F2
F2
F6
FA
05
11
11
0B
02
F5
F8
ED
F6
08
F7
07
00
F8
FF
01
F6
02
F8
D8
FC
0E
FB
09
08
F2
EA
FE
F6
05
FE
05
11
08
03
DA
17
FB
09
04
F9
F8
FE
F1
01
00
F5
00
16
F7
F0
09
0F
FF
F6
0B
EA
F2
06
1C
0A
0B
E9
F7
15
07
FB
E0
F8
EB
F4
ED
00
FC
0E
00
F4
F9
EB
F2
02
EE
06
F9
12
F5
EF
EC
F4
15
F2
1F
F4
12
FD
ED
11
15
02
F7
FA
10
12
09
FE
07
F5
FA
07
0C
F8
0D
02
12
FC
0F
FD
FC
E9
00
00
FC
00
1D
01
10
EA
F3
F0
E9
F7
E6
F1
06
FE
12
FD
13
F9
F5
F2
ED
0D
E9
F1
14
FD
CC
FC
14
F0
F2
0F
02
08
06
05
F6
0D
F1
EB
01
02
09
0F
F7
00
11
F6
E7
EE
00
04
E6
10
F3
FD
02
E8
FC
F2
0A
F1
FF
01
06
0E
F9
F3
07
ED
F0
11
F7
10
DB
05
06
F7
F3
E9
12
00
F7
03
F3
F9
13
EF
10
03
14
00
17
0C
F2
F1
0D
E9
09
0A
F4
E4
FC
10
02
07
13
03
03
1B
EF
F2
0B
EA
03
09
00
FF
02
F1
03
04
12
09
0F
16
FD
EE
11
05
0A
09
1B
08
F0
10
F7
0D
10
01
FA
F8
F1
F4
F9
F1
F3
F6
F2
FE
0E
FA
ED
FC
E7
F6
F6
13
F9
FD
16
FA
0C
EC
00
EF
F2
09
0B
01
F9
22
0C
13
09
0B
15
FC
01
FE
0E
06
16
07
1A
15
03
07
EC
01
10
FA
08
05
13
07
FC
07
10
0C
0A
11
C7
15
F5
07
FC
F3
DF
02
FF
F2
ED
FE
E5
F4
F2
03
F4
20
F6
09
14
17
03
EE
07
05
F1
10
FF
FB
EE
0E
F6
F9
08
04
EC
0B
FF
0D
11
F0
10
11
13
0C
17
F8
EF
EC
11
00
11
F2
03
F0
F2
10
0B
10
F6
0E
EF
12
E0
19
EC
00
FE
EA
EB
0F
F6
F7
18
0F
08
EC
F0
EC
F8
06
18
F1
FA
EF
F7
EC
F8
11
EC
02
02
02
03
04
03
0A
F0
F7
ED
08
0E
17
EB
FF
02
F5
0C
F6
0B
E7
1C
06
01
14
FB
FC
05
06
05
FE
EF
08
F9
0D
ED
E9
06
1A
10
11
05
FB
EF
EB
12
15
F6
EA
FE
0A
19
FC
0A
16
17
F1
F0
F8
FC
11
07
F8
11
0F
FA
F7
17
09
10
07
05
FB
08
F1
00
E9
F9
FC
16
05
FD
06
01
00
F8
06
F6
FF
17
F2
F0
F8
F5
F5
1A
0C
01
E9
05
18
15
ED
0D
15
0A
0E
EE
0C
F4
13
ED
F7
F1
F1
E9
12
E7
09
F0
0F
0F
08
12
FD
0E
18
0B
0A
12
ED
0B
FC
EE
F1
0A
F3
0E
06
07
F3
15
03
03
EB
ED
F6
ED
19
1B
00
FC
09
FA
F9
12
08
14
F6
F6
F6
0F
FC
F3
12
02
1D
EB
E9
11
FE
FA
FD
FA
E8
04
F7
DC
0B
DF
EA
1D
13
05
18
03
04
01
16
21
FF
13
03
15
14
16
F8
EE
F4
17
15
E9
F5
F0
10
FF
19
02
E8
0B
03
05
06
FB
02
0D
F0
F8
E8
FE
F7
0A
0F
EF
0E
FC
FE
F9
04
F1
00
07
EC
0C
02
13
EC
18
FC
11
0D
E8
EE
FC
EE
19
22
FF
F0
10
01
F3
04
01
1B
1A
F5
F4
10
1C
F3
F4
09
13
13
04
0D
F4
F2
EA
08
E9
ED
0B
13
06
F0
01
FD
F6
04
17
F4
F4
0F
15
EF
F8
F2
EE
00
00
0F
F9
11
FC
F6
F1
F1
FC
10
EE
ED
F8
E6
ED
10
15
09
1A
F9
12
08
F0
0E
11
E8
E7
F9
14
FB
10
0E
05
0B
1A
06
02
15
F3
0C
00
02
F7
12
0F
F7
F7
F5
0B
16
F3
EB
EE
F8
F4
EA
16
12
EA
F6
0C
E7
F5
FD
13
EB
F2
F9
F1
03
0B
08
F1
02
17
10
02
F9
03
F2
19
FD
FD
18
03
03
10
F1
13
EC
19
11
17
01
12
F0
0D
1D
01
07
04
F3
F9
EC
14
0C
E9
F2
F9
06
FA
00
F5
EA
18
02
06
F3
EE
08
F1
F8
13
07
FE
11
F4
E9
F4
F1
01
F5
FB
DA
0A
EB
D5
0B
15
F7
F0
01
D8
0E
ED
D9
0F
0D
F4
FF
09
F1
1A
12
22
F4
0A
F6
18
07
ED
0F
F3
18
F6
11
08
F5
F3
FE
0E
0A
FE
F5
0C
F5
F8
0F
F7
17
01
0B
EB
F2
0B
F8
10
FC
F2
09
10
02
10
F9
0E
08
F9
FF
06
0B
F3
12
05
F7
0D
06
17
F7
01
1B
00
FD
F3
17
FB
EA
0C
EC
EB
0C
08
EF
0B
10
10
1B
FC
06
F8
F5
EA
EE
E8
07
03
0C
E6
F3
07
F8
E2
FB
18
04
0A
F8
F9
EF
11
FB
02
00
FD
FA
FB
EC
15
F8
FC
10
E2
0A
FA
03
01
E8
FC
E9
EC
F4
E7
0A
04
06
11
11
F1
0C
0D
05
08
F2
FA
F7
EC
F1
0C
F6
02
FB
15
F4
0F
F4
F0
0F
0E
FB
E9
F9
17
F2
09
FE
12
04
09
03
07
FE
17
F4
07
F6
F3
07
F8
FA
0D
F9
EC
F3
1F
F9
1C
F9
0C
00
0E
05
1A
FC
12
E6
12
02
1D
F6
FB
E9
14
09
EF
ED
11
F2
08
0C
08
F6
0E
ED
11
0B
03
F4
F7
02
08
F2
0B
14
EF
FA
F5
EC
03
10
12
FB
05
1E
19
FA
0E
06
03
E7
09
F0
0B
06
FA
FB
03
1A
07
FA
FF
DA
F7
14
FB
15
12
F7
F3
05
D9
0E
DA
F3
06
12
F3
17
04
E6
FB
0A
0C
FF
07
E9
0C
03
13
FC
EA
FD
FC
0D
EB
FF
0E
0D
05
05
F9
F2
F5
ED
EC
04
18
09
03
0E
12
E6
F1
10
F1
19
12
E7
15
02
09
07
F1
E6
0B
1B
FD
02
1C
EC
FB
F5
04
06
18
FF
FF
14
0A
F6
18
F8
06
E9
1B
F8
FC
FE
0D
0B
17
F1
16
1B
EF
F8
FB
FF
15
EF
FF
F7
F3
EE
F9
FE
F8
F3
01
E2
F7
15
15
F4
13
02
19
F7
11
F3
0D
04
F6
EB
0C
0E
E9
F8
E3
E3
FA
14
DE
11
F9
E3
02
03
F9
F0
DE
EE
13
18
00
FF
0F
F7
03
0F
02
0B
10
E9
F2
F0
0D
0C
0C
19
05
F7
EC
0D
F8
06
EC
11
04
0B
EB
0E
EB
FC
1E
1A
FC
F0
04
02
0D
04
FE
F6
FC
F8
E5
EE
EB
04
25
F3
17
08
F5
F0
0E
06
FF
18
15
08
0E
EA
FB
1F
E8
F0
F3
F3
0E
F1
0B
FB
05
F4
0A
EB
F2
EE
1F
06
F5
E2
E7
F1
0F
01
E3
0B
0C
E1
0C
00
EE
F7
00
00
16
0C
1B
FD
02
04
11
07
07
0D
F6
E4
07
EB
22
1A
FB
F4
E8
EA
FF
09
EE
0C
17
F8
F0
FC
E6
10
E1
EE
30
15
F1
F0
ED
10
F5
08
10
14
0B
01
0A
FA
02
F0
F2
F4
E3
FC
08
F3
F6
F8
07
FB
E4
0C
F4
10
FE
E1
0A
10
0B
02
0F
06
1A
E9
04
05
0A
09
0E
0E
13
F7
ED
01
F6
10
F2
FF
1B
F8
00
01
07
E4
F9
FD
FC
21
F3
02
11
12
02
11
13
01
19
0C
12
09
ED
FE
EC
F8
17
FB
FA
F4
0E
0B
FD
EE
FA
FD
EE
FF
E2
06
EB
E8
18
F8
1E
1D
02
02
F4
07
FC
F9
03
09
09
F8
FE
F6
DD
02
EA
ED
FB
0F
11
04
EC
EF
E8
FD
EE
00
E5
0D
1C
FE
03
E2
EC
FB
F7
F3
18
E0
04
0D
E4
EA
E6
F6
07
16
E8
13
FC
09
FF
F6
E9
01
0B
F6
03
FE
07
F3
0D
18
EB
FB
ED
FA
DF
EE
14
04
EB
EA
EB
07
04
E8
10
FB
20
0E
ED
EB
11
EF
F7
16
08
E9
25
12
05
26
06
07
09
F3
F1
00
1C
07
17
0B
05
10
1F
FA
03
15
F1
08
ED
F2
F1
01
01
F7
09
04
DF
E6
00
FB
E3
03
28
20
21
20
F9
02
1A
12
0B
16
20
0B
FF
12
0B
14
00
F1
E4
FC
13
05
FD
03
1D
F4
FD
11
E3
FC
04
F6
0B
29
15
F6
15
12
16
F1
25
14
06
F6
16
00
F7
F3
F9
0B
F5
0C
07
FC
E0
F8
16
F3
00
07
DF
EB
F4
FB
19
FF
01
FC
FD
02
1B
01
F6
08
FC
EB
15
F0
27
0B
00
E4
F8
02
F3
EC
18
10
F1
F3
15
02
09
F5
12
1D
0A
EB
F3
FF
FD
00
F2
0B
1C
F0
0E
01
EC
FF
F7
F4
04
15
FB
E4
07
10
E8
EA
02
EA
F6
10
EE
15
F2
F6
03
2A
21
0F
EE
0D
01
ED
17
18
1B
02
00
EB
F6
FB
DF
EC
08
FF
0F
05
EC
10
FA
FF
03
FF
04
FD
F9
EC
15
09
EB
EB
0D
EE
EB
FF
0C
ED
E1
10
F4
EE
E2
E0
24
25
03
F2
11
FC
08
FA
E9
15
F3
EB
F0
F2
11
14
09
FE
ED
EA
ED
FE
E3
13
F3
F2
E9
ED
FE
EF
04
E4
0B
13
23
FE
05
0E
0A
FF
0D
05
F6
FF
14
F4
0A
11
FA
E3
07
17
10
F3
06
EE
08
05
0B
09
09
FF
12
04
EA
E5
FD
E9
F6
F4
F6
FD
F2
FA
DB
F6
F0
F9
F2
F7
19
25
1C
FF
15
0C
09
FA
16
FE
FC
E9
FB
07
0F
13
FE
FD
EF
E2
FA
11
FF
0C
05
E1
E8
0A
F6
08
E8
DA
2B
2B
FA
0A
04
F8
F3
0E
F0
11
11
05
F7
FD
13
F3
F3
DF
0B
02
F1
14
FF
FD
F8
F0
06
0E
FF
0A
EF
01
01
F2
02
24
0B
F9
0F
EB
F7
07
FC
12
FB
10
1D
12
09
F7
0D
F7
F0
FC
F9
F4
F0
FC
09
E4
FC
FE
09
07
EF
01
F7
05
06
0C
03
F5
1C
DB
E8
FE
EA
FC
E0
F4
FD
F6
E4
E2
08
0C
FA
F7
F9
F0
D3
0A
D9
13
F9
E1
14
07
0C
F3
09
EB
F9
04
00
1A
04
06
F6
EF
18
00
F1
FC
E0
F6
F4
FC
F2
F3
03
04
FF
EA
05
FE
0E
E9
01
0A
DD
E8
EA
FD
EF
12
01
08
E8
03
EC
F6
F5
FC
10
02
F8
08
F4
0E
12
0D
05
0F
E9
F1
00
05
FF
EE
0C
14
FF
ED
11
F7
07
15
FF
E7
0A
10
FC
10
E9
FD
11
17
19
14
F5
FF
0D
13
FE
15
F6
F3
09
07
1E
15
E9
09
1F
15
12
F6
FF
FA
06
FC
FA
EF
FC
F1
0D
1D
03
DE
00
DE
0F
EB
03
14
13
E9
FD
12
EB
EE
FF
F6
26
16
21
0B
FB
E6
18
FF
FC
FA
14
F1
22
F0
0B
1D
DC
02
FF
06
FD
FE
F0
EB
18
03
D7
F0
F7
EA
02
F3
12
0F
F3
00
F5
11
FE
F6
FB
EE
F9
F1
0F
00
0E
FE
F6
F4
F0
E0
0C
FF
E5
0C
15
08
E9
E7
DF
17
FF
EC
14
08
09
10
16
0B
12
02
F8
11
FD
EC
1B
F7
01
1E
06
EB
02
00
F6
FC
13
FC
F4
1C
19
00
04
EB
18
0C
FB
F9
E7
FA
0C
15
12
05
08
EB
FB
EE
FC
FE
F5
10
1F
FD
DB
F2
EC
FA
EA
0D
FA
DF
EF
0B
E9
07
F0
E4
20
23
07
10
13
F1
1C
F2
0F
03
02
FC
21
0D
22
0D
DA
E4
F5
F3
F9
FB
E6
F9
F3
F2
E6
09
E9
00
F5
FC
18
11
EA
EC
00
EE
00
0C
FA
E5
FC
EB
F8
FF
DE
F1
0A
1C
00
EB
08
FE
05
EC
07
0E
F1
EF
0F
0E
06
E8
00
FE
E3
F4
02
01
09
14
0A
FA
ED
0F
00
FA
EA
00
19
FE
1B
18
02
F1
14
11
00
1D
0B
FE
12
ED
12
08
02
F2
22
02
05
10
08
F8
E3
20
F9
0E
1C
08
19
00
00
EB
ED
EA
F2
EE
E4
F9
F6
EB
F9
10
FA
EB
03
F0
05
1F
0C
19
09
05
14
0C
FC
1F
23
0C
13
12
1E
1D
DF
FA
F7
F2
F6
E6
E6
F1
0C
F0
E3
FB
F9
02
F9
EB
12
0C
0B
0B
F4
11
0A
F7
06
FB
F7
EF
16
15
EE
12
F2
FD
E5
09
14
EB
EE
EE
10
FD
01
E6
E6
F6
E7
DF
FD
0A
14
08
EF
FC
FA
EF
11
18
FB
0E
1D
0B
0B
FE
F2
DC
08
15
F2
F0
21
EC
F4
12
20
02
03
10
01
FC
FB
E8
0C
1C
F1
EA
21
06
00
EE
09
11
FB
03
EE
14
18
0D
F7
E6
13
16
EA
F2
05
E2
EA
10
CE
15
D2
F6
06
13
00
FC
15
01
15
F1
F4
03
0A
FD
13
FC
1A
13
04
F6
EB
F5
F0
12
EF
04
17
0E
E5
01
F8
F3
08
F3
08
FF
DE
F3
FB
00
DF
08
03
E9
E7
0F
F0
FF
F9
03
22
0F
08
0A
F7
13
FC
F9
07
F4
EC
FF
FD
F5
EE
02
0A
14
00
E6
F0
EF
05
0A
F9
E0
08
FE
F1
03
E6
F9
0D
29
25
02
0B
0B
1D
07
EE
15
12
EF
0D
F0
0F
25
0E
DD
05
0C
06
02
11
0E
F0
13
15
F2
13
07
03
18
0D
EB
FB
DB
09
03
F3
EF
0D
DF
DC
02
D9
EA
EA
EE
32
04
21
0F
EF
0D
0D
E9
09
18
FE
F4
1B
F4
22
16
FB
FC
F6
FF
03
F1
FA
EB
0B
E3
02
F7
FA
EB
F7
FC
0D
01
16
FE
EE
F9
0E
03
0C
F3
09
FD
15
11
1A
03
E6
CF
01
02
11
F8
FF
F2
12
09
EC
0D
EE
02
F0
08
02
25
0C
03
15
F1
05
EB
EB
1D
23
F2
07
00
13
06
E4
E7
F9
1D
EC
12
FA
09
EE
18
FC
09
FD
EF
15
F9
F4
FF
15
02
0E
EF
FF
EC
FD
F3
12
11
E9
17
08
05
F7
0F
EE
F3
F1
0F
DC
EF
FC
EC
D9
EB
FA
03
F5
CB
17
1B
24
23
F9
0A
01
10
ED
F7
FD
E9
0B
07
10
0F
F9
D1
E8
F9
03
0B
F0
15
1A
EF
00
0D
05
F6
02
F8
27
2D
EC
06
E9
EB
E5
F2
07
DE
DD
ED
F0
FA
02
ED
18
10
0C
F4
EA
EB
FC
F9
18
ED
F7
0B
03
ED
EC
FF
24
18
F3
08
E9
06
DD
F6
06
ED
06
11
F3
0E
FC
03
1A
0C
15
14
F9
0C
08
F0
E6
22
00
FD
29
EF
11
2B
FD
FB
FD
07
01
F2
1C
EB
06
1A
FF
05
03
F8
1B
FD
0A
EB
FA
DE
EF
02
E5
FA
1E
E5
F6
08
06
F0
FB
F4
1A
21
FD
13
EE
0E
FA
11
E0
26
17
FE
FC
12
21
1F
EA
DD
DA
06
EC
E6
F7
10
21
E3
FC
10
FE
13
DD
E7
1F
05
15
F7
ED
08
17
0B
FE
02
11
F0
1B
E9
1A
EF
D6
01
DC
EA
17
EB
E4
FF
0F
DD
F8
E7
DD
EA
F9
DB
10
08
27
16
0D
FA
10
0F
F0
21
25
FF
05
0A
12
1F
E5
E4
10
16
04
F2
02
14
02
04
13
E8
F7
F9
1A
18
EE
F0
F6
F1
07
F9
EC
04
21
0C
0E
ED
FC
FF
E8
FE
0E
F4
F8
ED
0E
0B
E3
EA
15
D5
EE
E8
D0
EC
DF
D1
06
1F
16
13
02
F2
FD
FD
E3
18
23
E8
09
FF
04
01
C7
EC
F3
E4
0B
03
F8
0A
15
0D
F5
10
F4
13
06
0A
14
0C
